{
  "version": "1.0",
  "truncation": null,
  "padding": null,
  "added_tokens": [
    {
      "id": 0,
      "content": "[UNK]",
      "single_word": false,
      "lstrip": false,
      "rstrip": false,
      "normalized": false,
      "special": true
    },
    {
      "id": 1,
      "content": "[PAD]",
      "single_word": false,
      "lstrip": false,
      "rstrip": false,
      "normalized": false,
      "special": true
    },
    {
      "id": 2,
      "content": "[EOS]",
      "single_word": false,
      "lstrip": false,
      "rstrip": false,
      "normalized": false,
      "special": true
    }
  ],
  "normalizer": null,
  "pre_tokenizer": {
    "type": "Metaspace",
    "replacement": "_",
    "add_prefix_space": true,
    "prepend_scheme": "always"
  },
  "post_processor": null,
  "decoder": {
    "type": "Metaspace",
    "replacement": "_",
    "add_prefix_space": true,
    "prepend_scheme": "always"
  },
  "model": {
    "type": "BPE",
    "dropout": null,
    "unk_token": "[UNK]",
    "continuing_subword_prefix": null,
    "end_of_word_suffix": null,
    "fuse_unk": false,
    "byte_fallback": false,
    "vocab": {
      "[UNK]": 0,
      "[PAD]": 1,
      "[EOS]": 2,
      "\n": 3,
      "_": 4,
      "a": 5,
      "b": 6,
      "c": 7,
      "d": 8,
      "e": 9,
      "f": 10,
      "g": 11,
      "h": 12,
      "i": 13,
      "j": 14,
      "k": 15,
      "l": 16,
      "m": 17,
      "n": 18,
      "o": 19,
      "p": 20,
      "q": 21,
      "r": 22,
      "s": 23,
      "t": 24,
      "u": 25,
      "v": 26,
      "w": 27,
      "x": 28,
      "y": 29,
      "z": 30,
      "_t": 31,
      "_a": 32,
      "in": 33,
      "he": 34,
      "_o": 35,
      "er": 36,
      "_s": 37,
      "_the": 38,
      "re": 39,
      "_c": 40,
      "on": 41,
      "_f": 42,
      "en": 43,
      "is": 44,
      "at": 45,
      "an": 46,
      "_b": 47,
      "_w": 48,
      "_p": 49,
      "it": 50,
      "ed": 51,
      "_of": 52,
      "es": 53,
      "or": 54,
      "al": 55,
      "_in": 56,
      "_m": 57,
      "_n": 58,
      "_an": 59,
      "ar": 60,
      "_on": 61,
      "ic": 62,
      "_d": 63,
      "_e": 64,
      "ou": 65,
      "_h": 66,
      "_and": 67,
      "_l": 68,
      "ion": 69,
      "ing": 70,
      "_one": 71,
      "as": 72,
      "_th": 73,
      "_to": 74,
      "ro": 75,
      "le": 76,
      "_g": 77,
      "ve": 78,
      "ine": 79,
      "ent": 80,
      "ig": 81,
      "_re": 82,
      "_z": 83,
      "ero": 84,
      "om": 85,
      "_zero": 86,
      "ly": 87,
      "_nine": 88,
      "us": 89,
      "ct": 90,
      "il": 91,
      "_is": 92,
      "_se": 93,
      "_be": 94,
      "ol": 95,
      "am": 96,
      "st": 97,
      "_tw": 98,
      "_two": 99,
      "un": 100,
      "im": 101,
      "ht": 102,
      "ive": 103,
      "ation": 104,
      "ce": 105,
      "ra": 106,
      "_st": 107,
      "_for": 108,
      "ch": 109,
      "ight": 110,
      "id": 111,
      "ver": 112,
      "_as": 113,
      "ot": 114,
      "ut": 115,
      "ur": 116,
      "_al": 117,
      "et": 118,
      "our": 119,
      "ir": 120,
      "el": 121,
      "ist": 122,
      "ow": 123,
      "_con": 124,
      "ad": 125,
      "ree": 126,
      "ul": 127,
      "_he": 128,
      "ven": 129,
      "ter": 130,
      "_eight": 131,
      "_k": 132,
      "ith": 133,
      "_wh": 134,
      "_j": 135,
      "_de": 136,
      "_was": 137,
      "_it": 138,
      "_by": 139,
      "_r": 140,
      "_or": 141,
      "_five": 142,
      "_three": 143,
      "ay": 144,
      "ix": 145,
      "os": 146,
      "_that": 147,
      "_com": 148,
      "_with": 149,
      "her": 150,
      "_four": 151,
      "_pro": 152,
      "_v": 153,
      "_ch": 154,
      "and": 155,
      "um": 156,
      "_six": 157,
      "_un": 158,
      "ers": 159,
      "_seven": 160,
      "_mo": 161,
      "ge": 162,
      "if": 163,
      "_ex": 164,
      "op": 165,
      "ri": 166,
      "rom": 167,
      "_are": 168,
      "em": 169,
      "_su": 170,
      "th": 171,
      "est": 172,
      "oun": 173,
      "_at": 174,
      "res": 175,
      "ain": 176,
      "ate": 177,
      "ac": 178,
      "ab": 179,
      "ity": 180,
      "qu": 181,
      "ian": 182,
      "ies": 183,
      "od": 184,
      "pe": 185,
      "_from": 186,
      "se": 187,
      "_us": 188,
      "_ne": 189,
      "ment": 190,
      "ich": 191,
      "ld": 192,
      "_ar": 193,
      "oc": 194,
      "ical": 195,
      "ess": 196,
      "_en": 197,
      "iv": 198,
      "_his": 199,
      "ill": 200,
      "art": 201,
      "ant": 202,
      "_y": 203,
      "ia": 204,
      "ort": 205,
      "ial": 206,
      "ud": 207,
      "_le": 208,
      "all": 209,
      "og": 210,
      "_not": 211,
      "_this": 212,
      "ap": 213,
      "ard": 214,
      "_which": 215,
      "ish": 216,
      "ak": 217,
      "_wor": 218,
      "ag": 219,
      "ther": 220,
      "_sh": 221,
      "ber": 222,
      "der": 223,
      "ip": 224,
      "_pl": 225,
      "_ha": 226,
      "_comp": 227,
      "ction": 228,
      "_am": 229,
      "ure": 230,
      "ated": 231,
      "so": 232,
      "ary": 233,
      "ie": 234,
      "pp": 235,
      "pt": 236,
      "ame": 237,
      "ome": 238,
      "_man": 239,
      "ous": 240,
      "_cl": 241,
      "ast": 242,
      "_also": 243,
      "oug": 244,
      "rit": 245,
      "_ad": 246,
      "ere": 247,
      "_ab": 248,
      "_cont": 249,
      "cl": 250,
      "per": 251,
      "ire": 252,
      "_can": 253,
      "ong": 254,
      "ust": 255,
      "ell": 256,
      "age": 257,
      "_int": 258,
      "ran": 259,
      "_have": 260,
      "_sp": 261,
      "cc": 262,
      "ect": 263,
      "ks": 264,
      "_has": 265,
      "_whe": 266,
      "_were": 267,
      "_other": 268,
      "ally": 269,
      "ore": 270,
      "_all": 271,
      "ition": 272,
      "end": 273,
      "ence": 274,
      "ound": 275,
      "iz": 276,
      "_im": 277,
      "ib": 278,
      "_af": 279,
      "_part": 280,
      "ry": 281,
      "_but": 282,
      "_u": 283,
      "_comm": 284,
      "ations": 285,
      "ory": 286,
      "_ro": 287,
      "fer": 288,
      "ide": 289,
      "tern": 290,
      "erm": 291,
      "ub": 292,
      "_sc": 293,
      "du": 294,
      "ult": 295,
      "ass": 296,
      "ough": 297,
      "_te": 298,
      "_dis": 299,
      "ang": 300,
      "ren": 301,
      "ign": 302,
      "_its": 303,
      "_ind": 304,
      "av": 305,
      "ru": 306,
      "ph": 307,
      "act": 308,
      "_i": 309,
      "_sy": 310,
      "pl": 311,
      "ould": 312,
      "_their": 313,
      "vers": 314,
      "_res": 315,
      "ars": 316,
      "_new": 317,
      "_some": 318,
      "_go": 319,
      "ke": 320,
      "_fir": 321,
      "_ra": 322,
      "ord": 323,
      "land": 324,
      "_col": 325,
      "out": 326,
      "_no": 327,
      "_co": 328,
      "ime": 329,
      "_bec": 330,
      "ount": 331,
      "ates": 332,
      "_had": 333,
      "_me": 334,
      "_they": 335,
      "vel": 336,
      "_so": 337,
      "orm": 338,
      "_first": 339,
      "ism": 340,
      "_form": 341,
      "_gen": 342,
      "ican": 343,
      "_most": 344,
      "ces": 345,
      "_bo": 346,
      "_ph": 347,
      "_ag": 348,
      "own": 349,
      "red": 350,
      "_mar": 351,
      "ue": 352,
      "ack": 353,
      "able": 354,
      "_po": 355,
      "_more": 356,
      "ater": 357,
      "ice": 358,
      "_per": 359,
      "_there": 360,
      "ress": 361,
      "_pr": 362,
      "ions": 363,
      "_who": 364,
      "ose": 365,
      "_gr": 366,
      "ict": 367,
      "_des": 368,
      "_tra": 369,
      "_cent": 370,
      "ics": 371,
      "ond": 372,
      "_we": 373,
      "ach": 374,
      "_cons": 375,
      "_ye": 376,
      "_amer": 377,
      "_spe": 378,
      "_been": 379,
      "ite": 380,
      "_ser": 381,
      "ff": 382,
      "_em": 383,
      "_rel": 384,
      "ile": 385,
      "ens": 386,
      "_rec": 387,
      "ace": 388,
      "_ele": 389,
      "_such": 390,
      "_pe": 391,
      "ok": 392,
      "_qu": 393,
      "_many": 394,
      "_eng": 395,
      "olog": 396,
      "_kn": 397,
      "clud": 398,
      "ors": 399,
      "ath": 400,
      "ational": 401,
      "ance": 402,
      "te": 403,
      "_fe": 404,
      "_act": 405,
      "_used": 406,
      "ited": 407,
      "_pol": 408,
      "_after": 409,
      "_bl": 410,
      "les": 411,
      "ase": 412,
      "hed": 413,
      "ts": 414,
      "_includ": 415,
      "_how": 416,
      "port": 417,
      "one": 418,
      "_over": 419,
      "ular": 420,
      "_inf": 421,
      "_li": 422,
      "ubl": 423,
      "we": 424,
      "_ear": 425,
      "_see": 426,
      "_pre": 427,
      "_when": 428,
      "_do": 429,
      "_app": 430,
      "_may": 431,
      "ced": 432,
      "_la": 433,
      "amp": 434,
      "_out": 435,
      "reat": 436,
      "wn": 437,
      "_time": 438,
      "ten": 439,
      "_american": 440,
      "low": 441,
      "ans": 442,
      "_into": 443,
      "ual": 444,
      "ious": 445,
      "_pres": 446,
      "_these": 447,
      "_hist": 448,
      "are": 449,
      "_jo": 450,
      "aus": 451,
      "_war": 452,
      "_than": 453,
      "ents": 454,
      "_inter": 455,
      "_play": 456,
      "ied": 457,
      "_bet": 458,
      "ind": 459,
      "_only": 460,
      "_up": 461,
      "stem": 462,
      "ft": 463,
      "ug": 464,
      "_world": 465,
      "ved": 466,
      "_acc": 467,
      "ings": 468,
      "_under": 469,
      "_reg": 470,
      "_char": 471,
      "ative": 472,
      "_system": 473,
      "_gener": 474,
      "_sub": 475,
      "_ass": 476,
      "_off": 477,
      "_ma": 478,
      "_num": 479,
      "_att": 480,
      "_ap": 481,
      "_ev": 482,
      "int": 483,
      "_pop": 484,
      "_count": 485,
      "_will": 486,
      "very": 487,
      "_mus": 488,
      "ons": 489,
      "uring": 490,
      "_call": 491,
      "_ac": 492,
      "_ed": 493,
      "_car": 494,
      "_would": 495,
      "rib": 496,
      "_def": 497,
      "_fl": 498,
      "_bas": 499,
      "_sec": 500,
      "_uni": 501,
      "ll": 502,
      "ific": 503,
      "ys": 504,
      "_hig": 505,
      "rans": 506,
      "_rep": 507,
      "_lar": 508,
      "vern": 509,
      "_trans": 510,
      "uc": 511,
      "_dif": 512,
      "ever": 513,
      "ade": 514,
      "oth": 515,
      "ution": 516,
      "dition": 517,
      "ject": 518,
      "_produ": 519,
      "_art": 520,
      "_lin": 521,
      "_them": 522,
      "ists": 523,
      "_govern": 524,
      "_lo": 525,
      "ween": 526,
      "_par": 527,
      "_however": 528,
      "_between": 529,
      "iet": 530,
      "_inc": 531,
      "_peop": 532,
      "old": 533,
      "_inst": 534,
      "_her": 535,
      "_about": 536,
      "gr": 537,
      "ric": 538,
      "ep": 539,
      "_work": 540,
      "ident": 541,
      "_met": 542,
      "_lang": 543,
      "_min": 544,
      "_use": 545,
      "gan": 546,
      "_ob": 547,
      "ake": 548,
      "_states": 549,
      "_publ": 550,
      "_if": 551,
      "_him": 552,
      "iss": 553,
      "_sim": 554,
      "erman": 555,
      "_x": 556,
      "_eu": 557,
      "ient": 558,
      "orn": 559,
      "ron": 560,
      "oup": 561,
      "_pos": 562,
      "_mon": 563,
      "ood": 564,
      "ild": 565,
      "_writ": 566,
      "_langu": 567,
      "_thr": 568,
      "ays": 569,
      "_years": 570,
      "_people": 571,
      "als": 572,
      "_mem": 573,
      "ually": 574,
      "_during": 575,
      "cial": 576,
      "ities": 577,
      "ince": 578,
      "_known": 579,
      "ail": 580,
      "_rem": 581,
      "_united": 582,
      "_inv": 583,
      "ily": 584,
      "io": 585,
      "_any": 586,
      "lish": 587,
      "cept": 588,
      "_called": 589,
      "ral": 590,
      "_fil": 591,
      "_where": 592,
      "ert": 593,
      "_fol": 594,
      "ower": 595,
      "urn": 596,
      "_fin": 597,
      "_sm": 598,
      "hes": 599,
      "cy": 600,
      "ury": 601,
      "_gu": 602,
      "_aut": 603,
      "_bel": 604,
      "_univers": 605,
      "_brit": 606,
      "_br": 607,
      "ife": 608,
      "ause": 609,
      "_through": 610,
      "_german": 611,
      "_sch": 612,
      "_sa": 613,
      "_var": 614,
      "_pers": 615,
      "ology": 616,
      "_supp": 617,
      "ward": 618,
      "con": 619,
      "_cap": 620,
      "ating": 621,
      "_ext": 622,
      "_often": 623,
      "_ent": 624,
      "_sou": 625,
      "_state": 626,
      "_dist": 627,
      "ne": 628,
      "ible": 629,
      "li": 630,
      "ures": 631,
      "ments": 632,
      "_term": 633,
      "_const": 634,
      "_end": 635,
      "hem": 636,
      "rist": 637,
      "_history": 638,
      "raph": 639,
      "_fran": 640,
      "_ge": 641,
      "_fam": 642,
      "imes": 643,
      "_est": 644,
      "ck": 645,
      "ise": 646,
      "_euro": 647,
      "ically": 648,
      "_group": 649,
      "ames": 650,
      "_differ": 651,
      "_main": 652,
      "ick": 653,
      "_bro": 654,
      "_elect": 655,
      "velop": 656,
      "_soc": 657,
      "_mat": 658,
      "_while": 659,
      "ale": 660,
      "_king": 661,
      "_intern": 662,
      "form": 663,
      "_nor": 664,
      "_high": 665,
      "_well": 666,
      "igin": 667,
      "_refer": 668,
      "cess": 669,
      "_like": 670,
      "_set": 671,
      "_develop": 672,
      "_follow": 673,
      "hip": 674,
      "_found": 675,
      "ages": 676,
      "_again": 677,
      "_city": 678,
      "ble": 679,
      "_origin": 680,
      "_being": 681,
      "_exp": 682,
      "_air": 683,
      "_fun": 684,
      "ished": 685,
      "_then": 686,
      "ost": 687,
      "tle": 688,
      "hn": 689,
      "_number": 690,
      "_disc": 691,
      "_both": 692,
      "uss": 693,
      "_made": 694,
      "fore": 695,
      "_imp": 696,
      "_christ": 697,
      "man": 698,
      "_english": 699,
      "ider": 700,
      "_hum": 701,
      "_ty": 702,
      "ians": 703,
      "_law": 704,
      "ctions": 705,
      "_rom": 706,
      "ather": 707,
      "iel": 708,
      "_common": 709,
      "_government": 710,
      "ah": 711,
      "_med": 712,
      "ines": 713,
      "ted": 714,
      "_she": 715,
      "_europe": 716,
      "_eff": 717,
      "_prov": 718,
      "_long": 719,
      "ature": 720,
      "_stud": 721,
      "_sur": 722,
      "_later": 723,
      "_polit": 724,
      "_film": 725,
      "_cur": 726,
      "_dire": 727,
      "ract": 728,
      "its": 729,
      "ton": 730,
      "_dep": 731,
      "bers": 732,
      "other": 733,
      "_bu": 734,
      "_mil": 735,
      "_loc": 736,
      "ins": 737,
      "_cre": 738,
      "_name": 739,
      "ural": 740,
      "omet": 741,
      "ized": 742,
      "_national": 743,
      "_commun": 744,
      "_je": 745,
      "_class": 746,
      "_arm": 747,
      "_since": 748,
      "_john": 749,
      "_century": 750,
      "_mu": 751,
      "_dec": 752,
      "_cal": 753,
      "_sign": 754,
      "_cor": 755,
      "_sever": 756,
      "_str": 757,
      "ful": 758,
      "ds": 759,
      "iew": 760,
      "_ret": 761,
      "ty": 762,
      "_colle": 763,
      "_maj": 764,
      "_dem": 765,
      "_great": 766,
      "_because": 767,
      "ving": 768,
      "_ke": 769,
      "az": 770,
      "rent": 771,
      "_lead": 772,
      "_university": 773,
      "_leg": 774,
      "ample": 775,
      "ann": 776,
      "ision": 777,
      "_life": 778,
      "_british": 779,
      "ined": 780,
      "ork": 781,
      "_early": 782,
      "row": 783,
      "_partic": 784,
      "led": 785,
      "_even": 786,
      "arch": 787,
      "_right": 788,
      "conom": 789,
      "_large": 790,
      "_year": 791,
      "_major": 792,
      "_consider": 793,
      "_lit": 794,
      "_list": 795,
      "_contro": 796,
      "ograph": 797,
      "_power": 798,
      "_own": 799,
      "_same": 800,
      "_day": 801,
      "_comple": 802,
      "_ir": 803,
      "_econom": 804,
      "_equ": 805,
      "_sing": 806,
      "_music": 807,
      "ros": 808,
      "_god": 809,
      "ger": 810,
      "_val": 811,
      "_charact": 812,
      "xt": 813,
      "_including": 814,
      "_example": 815,
      "_contin": 816,
      "amm": 817,
      "_second": 818,
      "_es": 819,
      "chn": 820,
      "ility": 821,
      "_gre": 822,
      "_each": 823,
      "ues": 824,
      "_comput": 825,
      "_became": 826,
      "lo": 827,
      "_occ": 828,
      "_language": 829,
      "ium": 830,
      "_op": 831,
      "ier": 832,
      "_general": 833,
      "_desc": 834,
      "_spec": 835,
      "elf": 836,
      "ves": 837,
      "ences": 838,
      "_death": 839,
      "_alth": 840,
      "_although": 841,
      "_det": 842,
      "_mod": 843,
      "_el": 844,
      "_oper": 845,
      "_direct": 846,
      "ives": 847,
      "ters": 848,
      "_import": 849,
      "_different": 850,
      "_several": 851,
      "_fre": 852,
      "ange": 853,
      "_moder": 854,
      "ik": 855,
      "_appe": 856,
      "_ant": 857,
      "pect": 858,
      "ulation": 859,
      "_island": 860,
      "_pri": 861,
      "_bat": 862,
      "_stand": 863,
      "ning": 864,
      "_phil": 865,
      "_har": 866,
      "_much": 867,
      "_ins": 868,
      "_small": 869,
      "_organ": 870,
      "_before": 871,
      "_very": 872,
      "_techn": 873,
      "rench": 874,
      "ience": 875,
      "urch": 876,
      "ica": 877,
      "_conf": 878,
      "gy": 879,
      "_result": 880,
      "_south": 881,
      "_what": 882,
      "_now": 883,
      "_french": 884,
      "vent": 885,
      "_sw": 886,
      "_er": 887,
      "_north": 888,
      "hen": 889,
      "_progr": 890,
      "_aust": 891,
      "_offic": 892,
      "atic": 893,
      "_public": 894,
      "ool": 895,
      "_land": 896,
      "_sl": 897,
      "_pa": 898,
      "els": 899,
      "_ii": 900,
      "_rev": 901,
      "ants": 902,
      "ock": 903,
      "_design": 904,
      "_against": 905,
      "_old": 906,
      "ought": 907,
      "ital": 908,
      "_fact": 909,
      "_could": 910,
      "_cult": 911,
      "_belie": 912,
      "_bar": 913,
      "ains": 914,
      "ternal": 915,
      "_gra": 916,
      "_those": 917,
      "_links": 918,
      "_cour": 919,
      "rop": 920,
      "_modern": 921,
      "_back": 922,
      "ruct": 923,
      "ouse": 924,
      "_dr": 925,
      "_order": 926,
      "_person": 927,
      "ional": 928,
      "gest": 929,
      "ained": 930,
      "_based": 931,
      "_lat": 932,
      "ute": 933,
      "up": 934,
      "aim": 935,
      "aking": 936,
      "_cr": 937,
      "_unt": 938,
      "_port": 939,
      "_mark": 940,
      "ave": 941,
      "_poss": 942,
      "osed": 943,
      "ina": 944,
      "ries": 945,
      "_another": 946,
      "olution": 947,
      "_external": 948,
      "ived": 949,
      "_div": 950,
      "_hand": 951,
      "ting": 952,
      "_hy": 953,
      "_human": 954,
      "_my": 955,
      "_record": 956,
      "_show": 957,
      "de": 958,
      "_somet": 959,
      "_president": 960,
      "_auth": 961,
      "way": 962,
      "_country": 963,
      "_non": 964,
      "ode": 965,
      "get": 966,
      "ull": 967,
      "_you": 968,
      "_ref": 969,
      "_series": 970,
      "ared": 971,
      "_pat": 972,
      "_free": 973,
      "ccess": 974,
      "_game": 975,
      "ament": 976,
      "_book": 977,
      "_popular": 978,
      "_expl": 979,
      "_requ": 980,
      "_still": 981,
      "ield": 982,
      "oy": 983,
      "_conc": 984,
      "_effect": 985,
      "_av": 986,
      "_tradition": 987,
      "_international": 988,
      "oph": 989,
      "ged": 990,
      "_support": 991,
      "_until": 992,
      "_serv": 993,
      "_ter": 994,
      "_did": 995,
      "_prot": 996,
      "ense": 997,
      "bert": 998,
      "_church": 999,
      "_stat": 1000,
      "_run": 1001,
      "_tr": 1002,
      "iod": 1003,
      "_infl": 1004,
      "_dom": 1005,
      "enn": 1006,
      "_inform": 1007,
      "_jew": 1008,
      "_just": 1009,
      "_line": 1010,
      "ired": 1011,
      "_artic": 1012,
      "ased": 1013,
      "ently": 1014,
      "min": 1015,
      "_rad": 1016,
      "_vers": 1017,
      "_arg": 1018,
      "_success": 1019,
      "_milit": 1020,
      "ason": 1021,
      "ret": 1022,
      "ization": 1023,
      "_west": 1024,
      "ley": 1025,
      "_mill": 1026,
      "_pass": 1027,
      "_net": 1028,
      "ius": 1029,
      "_school": 1030,
      "_way": 1031,
      "_point": 1032,
      "_fa": 1033,
      "ories": 1034,
      "ided": 1035,
      "_character": 1036,
      "_opp": 1037,
      "_political": 1038,
      "_prop": 1039,
      "ov": 1040,
      "_di": 1041,
      "_add": 1042,
      "_compan": 1043,
      "que": 1044,
      "_usually": 1045,
      "_real": 1046,
      "_sk": 1047,
      "ams": 1048,
      "_party": 1049,
      "_process": 1050,
      "_fo": 1051,
      "_allow": 1052,
      "_relig": 1053,
      "ner": 1054,
      "_crit": 1055,
      "_bre": 1056,
      "_incre": 1057,
      "ices": 1058,
      "_among": 1059,
      "ene": 1060,
      "_bir": 1061,
      "ised": 1062,
      "_mag": 1063,
      "_roman": 1064,
      "_down": 1065,
      "bo": 1066,
      "por": 1067,
      "mber": 1068,
      "_bi": 1069,
      "ross": 1070,
      "bs": 1071,
      "ank": 1072,
      "ms": 1073,
      "_typ": 1074,
      "_rele": 1075,
      "_gree": 1076,
      "_mid": 1077,
      "_histor": 1078,
      "_adv": 1079,
      "_eas": 1080,
      "_let": 1081,
      "iation": 1082,
      "_coun": 1083,
      "_nat": 1084,
      "_fore": 1085,
      "ified": 1086,
      "ness": 1087,
      "_period": 1088,
      "_open": 1089,
      "_last": 1090,
      "yn": 1091,
      "_sol": 1092,
      "ator": 1093,
      "_near": 1094,
      "co": 1095,
      "_area": 1096,
      "ark": 1097,
      "_every": 1098,
      "ides": 1099,
      "_around": 1100,
      "_child": 1101,
      "_view": 1102,
      "_phys": 1103,
      "ases": 1104,
      "_official": 1105,
      "_left": 1106,
      "_gl": 1107,
      "_theory": 1108,
      "_repres": 1109,
      "ilar": 1110,
      "_arch": 1111,
      "_include": 1112,
      "_short": 1113,
      "_tri": 1114,
      "_author": 1115,
      "_ep": 1116,
      "_ang": 1117,
      "inc": 1118,
      "_members": 1119,
      "_far": 1120,
      "_claim": 1121,
      "iety": 1122,
      "_gi": 1123,
      "ister": 1124,
      "_though": 1125,
      "_head": 1126,
      "_dra": 1127,
      "_similar": 1128,
      "_exper": 1129,
      "ably": 1130,
      "_using": 1131,
      "yl": 1132,
      "_particular": 1133,
      "_vol": 1134,
      "ata": 1135,
      "_east": 1136,
      "_move": 1137,
      "_house": 1138,
      "ball": 1139,
      "_press": 1140,
      "_following": 1141,
      "day": 1142,
      "amed": 1143,
      "_russ": 1144,
      "_jap": 1145,
      "iving": 1146,
      "_ide": 1147,
      "ze": 1148,
      "_within": 1149,
      "ets": 1150,
      "_current": 1151,
      "_bra": 1152,
      "_bod": 1153,
      "_military": 1154,
      "_tem": 1155,
      "_mean": 1156,
      "iction": 1157,
      "imate": 1158,
      "_japan": 1159,
      "ware": 1160,
      "ued": 1161,
      "_prof": 1162,
      "_ta": 1163,
      "_hun": 1164,
      "_rest": 1165,
      "_population": 1166,
      "_canad": 1167,
      "_ste": 1168,
      "_influ": 1169,
      "_hel": 1170,
      "_tele": 1171,
      "ec": 1172,
      "_bus": 1173,
      "_christian": 1174,
      "ash": 1175,
      "_important": 1176,
      "_light": 1177,
      "_lab": 1178,
      "_standard": 1179,
      "_water": 1180,
      "_del": 1181,
      "_appro": 1182,
      "ize": 1183,
      "_social": 1184,
      "_ve": 1185,
      "_considered": 1186,
      "me": 1187,
      "ese": 1188,
      "_due": 1189,
      "au": 1190,
      "_cir": 1191,
      "_ho": 1192,
      "_alb": 1193,
      "ps": 1194,
      "_less": 1195,
      "_vi": 1196,
      "gin": 1197,
      "_philos": 1198,
      "_exist": 1199,
      "_computer": 1200,
      "ript": 1201,
      "_perform": 1202,
      "ertain": 1203,
      "_information": 1204,
      "_accord": 1205,
      "_civ": 1206,
      "_home": 1207,
      "_sour": 1208,
      "_family": 1209,
      "erv": 1210,
      "_ri": 1211,
      "dom": 1212,
      "_jud": 1213,
      "ument": 1214,
      "ony": 1215,
      "akes": 1216,
      "_european": 1217,
      "_cy": 1218,
      "_pract": 1219,
      "ane": 1220,
      "_sometimes": 1221,
      "_does": 1222,
      "ended": 1223,
      "_sym": 1224,
      "rodu": 1225,
      "_start": 1226,
      "_word": 1227,
      "_assoc": 1228,
      "_dev": 1229,
      "ography": 1230,
      "_ber": 1231,
      "ths": 1232,
      "ats": 1233,
      "_wes": 1234,
      "_without": 1235,
      "hing": 1236,
      "_ann": 1237,
      "_given": 1238,
      "_win": 1239,
      "_proble": 1240,
      "_times": 1241,
      "_civil": 1242,
      "_make": 1243,
      "epend": 1244,
      "par": 1245,
      "_read": 1246,
      "_represent": 1247,
      "_present": 1248,
      "_place": 1249,
      "_independ": 1250,
      "_cle": 1251,
      "_republ": 1252,
      "_fur": 1253,
      "_estab": 1254,
      "ler": 1255,
      "_lim": 1256,
      "_good": 1257,
      "_few": 1258,
      "_should": 1259,
      "_emp": 1260,
      "_born": 1261,
      "tic": 1262,
      "ither": 1263,
      "_hal": 1264,
      "_level": 1265,
      "_describ": 1266,
      "_thir": 1267,
      "_black": 1268,
      "tal": 1269,
      "_addition": 1270,
      "_space": 1271,
      "_central": 1272,
      "_case": 1273,
      "_circ": 1274,
      "oss": 1275,
      "_ital": 1276,
      "oks": 1277,
      "_austral": 1278,
      "_meth": 1279,
      "_red": 1280,
      "_science": 1281,
      "ological": 1282,
      "_age": 1283,
      "_control": 1284,
      "eng": 1285,
      "_top": 1286,
      "_led": 1287,
      "_appl": 1288,
      "ission": 1289,
      "_pur": 1290,
      "_ca": 1291,
      "_rul": 1292,
      "empt": 1293,
      "_union": 1294,
      "_da": 1295,
      "lect": 1296,
      "_thus": 1297,
      "ential": 1298,
      "ency": 1299,
      "bn": 1300,
      "ration": 1301,
      "_york": 1302,
      "read": 1303,
      "ster": 1304,
      "_various": 1305,
      "na": 1306,
      "une": 1307,
      "ison": 1308,
      "_vis": 1309,
      "_languages": 1310,
      "_aff": 1311,
      "_countries": 1312,
      "_earth": 1313,
      "less": 1314,
      "istic": 1315,
      "_article": 1316,
      "_become": 1317,
      "_must": 1318,
      "_ver": 1319,
      "amb": 1320,
      "ination": 1321,
      "aced": 1322,
      "_isbn": 1323,
      "_best": 1324,
      "_comb": 1325,
      "_mass": 1326,
      "ott": 1327,
      "_others": 1328,
      "ple": 1329,
      "omen": 1330,
      "_according": 1331,
      "_super": 1332,
      "_systems": 1333,
      "_der": 1334,
      "_return": 1335,
      "_western": 1336,
      "_resp": 1337,
      "_rece": 1338,
      "_mor": 1339,
      "cing": 1340,
      "_treat": 1341,
      "che": 1342,
      "ots": 1343,
      "_never": 1344,
      "_hol": 1345,
      "_cat": 1346,
      "ried": 1347,
      "_men": 1348,
      "_cop": 1349,
      "ling": 1350,
      "_chang": 1351,
      "_anim": 1352,
      "_camp": 1353,
      "_tit": 1354,
      "_special": 1355,
      "_works": 1356,
      "_began": 1357,
      "_generally": 1358,
      "_test": 1359,
      "_hen": 1360,
      "_indust": 1361,
      "over": 1362,
      "_proper": 1363,
      "ink": 1364,
      "_need": 1365,
      "_song": 1366,
      "ivid": 1367,
      "_written": 1368,
      "_original": 1369,
      "_iss": 1370,
      "_object": 1371,
      "_den": 1372,
      "_sum": 1373,
      "_sal": 1374,
      "eder": 1375,
      "_eth": 1376,
      "urg": 1377,
      "_former": 1378,
      "_know": 1379,
      "_foot": 1380,
      "_struct": 1381,
      "ae": 1382,
      "_geor": 1383,
      "_imm": 1384,
      "son": 1385,
      "ways": 1386,
      "_force": 1387,
      "_method": 1388,
      "_post": 1389,
      "_prim": 1390,
      "_turn": 1391,
      "_individ": 1392,
      "ones": 1393,
      "_attempt": 1394,
      "_log": 1395,
      "_single": 1396,
      "_che": 1397,
      "_further": 1398,
      "_development": 1399,
      "_constit": 1400,
      "_kill": 1401,
      "_anc": 1402,
      "_player": 1403,
      "uted": 1404,
      "ior": 1405,
      "_low": 1406,
      "gress": 1407,
      "_introdu": 1408,
      "lex": 1409,
      "_liter": 1410,
      "_relations": 1411,
      "_event": 1412,
      "line": 1413,
      "_build": 1414,
      "_pet": 1415,
      "_mult": 1416,
      "_france": 1417,
      "_et": 1418,
      "_ident": 1419,
      "_kingdom": 1420,
      "_wide": 1421,
      "_vir": 1422,
      "ove": 1423,
      "alth": 1424,
      "be": 1425,
      "_band": 1426,
      "ality": 1427,
      "_km": 1428,
      "_groups": 1429,
      "_individual": 1430,
      "ring": 1431,
      "_england": 1432,
      "_position": 1433,
      "_late": 1434,
      "self": 1435,
      "_liber": 1436,
      "_son": 1437,
      "_cell": 1438,
      "_report": 1439,
      "olic": 1440,
      "_greek": 1441,
      "_rather": 1442,
      "_body": 1443,
      "_along": 1444,
      "_lond": 1445,
      "wards": 1446,
      "_obs": 1447,
      "_invol": 1448,
      "_london": 1449,
      "_dav": 1450,
      "ively": 1451,
      "_jan": 1452,
      "_engine": 1453,
      "_scient": 1454,
      "cially": 1455,
      "ival": 1456,
      "ges": 1457,
      "yle": 1458,
      "_court": 1459,
      "_anal": 1460,
      "_mic": 1461,
      "air": 1462,
      "_beh": 1463,
      "_du": 1464,
      "ances": 1465,
      "_function": 1466,
      "cul": 1467,
      "_aug": 1468,
      "_germany": 1469,
      "_mot": 1470,
      "_sea": 1471,
      "_natural": 1472,
      "_data": 1473,
      "_repl": 1474,
      "_named": 1475,
      "_bal": 1476,
      "_base": 1477,
      "_published": 1478,
      "_occur": 1479,
      "_star": 1480,
      "_said": 1481,
      "_ara": 1482,
      "tt": 1483,
      "rael": 1484,
      "_mathem": 1485,
      "_games": 1486,
      "_capital": 1487,
      "_battle": 1488,
      "_nort": 1489,
      "ches": 1490,
      "_field": 1491,
      "ob": 1492,
      "_pal": 1493,
      "_certain": 1494,
      "ma": 1495,
      "_rese": 1496,
      "_soft": 1497,
      "app": 1498,
      "_decl": 1499,
      "_caus": 1500,
      "aster": 1501,
      "_ju": 1502,
      "ague": 1503,
      "_million": 1504,
      "cil": 1505,
      "_mal": 1506,
      "_strong": 1507,
      "_empire": 1508,
      "_interest": 1509,
      "_sun": 1510,
      "_mer": 1511,
      "_project": 1512,
      "_news": 1513,
      "_economic": 1514,
      "_college": 1515,
      "_army": 1516,
      "_company": 1517,
      "_either": 1518,
      "ends": 1519,
      "_version": 1520,
      "ention": 1521,
      "_take": 1522,
      "_israel": 1523,
      "by": 1524,
      "ites": 1525,
      "_cath": 1526,
      "_syn": 1527,
      "_hard": 1528,
      "work": 1529,
      "_fem": 1530,
      "ote": 1531,
      "ogn": 1532,
      "aining": 1533,
      "ern": 1534,
      "_grow": 1535,
      "_fr": 1536,
      "_service": 1537,
      "_educ": 1538,
      "idence": 1539,
      "_bill": 1540,
      "_product": 1541,
      "_developed": 1542,
      "ification": 1543,
      "_full": 1544,
      "_means": 1545,
      "_father": 1546,
      "_hom": 1547,
      "_team": 1548,
      "han": 1549,
      "ids": 1550,
      "most": 1551,
      "aken": 1552,
      "raft": 1553,
      "_america": 1554,
      "gen": 1555,
      "_wal": 1556,
      "itive": 1557,
      "_mater": 1558,
      "_willi": 1559,
      "ctor": 1560,
      "_philosoph": 1561,
      "_today": 1562,
      "_youn": 1563,
      "_norm": 1564,
      "_espe": 1565,
      "_held": 1566,
      "_ru": 1567,
      "_sat": 1568,
      "_lib": 1569,
      "_sug": 1570,
      "_especially": 1571,
      "_sov": 1572,
      "_ball": 1573,
      "_white": 1574,
      "_local": 1575,
      "_total": 1576,
      "_books": 1577,
      "_care": 1578,
      "ured": 1579,
      "_society": 1580,
      "ilt": 1581,
      "_august": 1582,
      "_chem": 1583,
      "_ast": 1584,
      "_ill": 1585,
      "_third": 1586,
      "_soviet": 1587,
      "_sound": 1588,
      "_separ": 1589,
      "_town": 1590,
      "_forces": 1591,
      "_side": 1592,
      "_dest": 1593,
      "rew": 1594,
      "_ce": 1595,
      "aps": 1596,
      "_concept": 1597,
      "_dan": 1598,
      "_prev": 1599,
      "_republic": 1600,
      "_text": 1601,
      "_ps": 1602,
      "_subject": 1603,
      "_possible": 1604,
      "_novel": 1605,
      "_instit": 1606,
      "_tru": 1607,
      "dle": 1608,
      "ication": 1609,
      "_democ": 1610,
      "ox": 1611,
      "_took": 1612,
      "ught": 1613,
      "_famous": 1614,
      "_frequ": 1615,
      "_rock": 1616,
      "_children": 1617,
      "ergy": 1618,
      "iated": 1619,
      "yal": 1620,
      "uary": 1621,
      "_deb": 1622,
      "_q": 1623,
      "_bor": 1624,
      "_regard": 1625,
      "arian": 1626,
      "_center": 1627,
      "_having": 1628,
      "lin": 1629,
      "_defin": 1630,
      "osition": 1631,
      "_story": 1632,
      "_himself": 1633,
      "_came": 1634,
      "_activ": 1635,
      "_appear": 1636,
      "ruction": 1637,
      "_princ": 1638,
      "_diff": 1639,
      "_complete": 1640,
      "ander": 1641,
      "_material": 1642,
      "mer": 1643,
      "_mount": 1644,
      "verse": 1645,
      "_princip": 1646,
      "_hold": 1647,
      "_words": 1648,
      "_transl": 1649,
      "_card": 1650,
      "_sex": 1651,
      "_tro": 1652,
      "_enc": 1653,
      "_islands": 1654,
      "_river": 1655,
      "_council": 1656,
      "_anti": 1657,
      "aw": 1658,
      "iness": 1659,
      "_fall": 1660,
      "_meas": 1661,
      "_little": 1662,
      "idge": 1663,
      "_ship": 1664,
      "_emper": 1665,
      "_don": 1666,
      "emb": 1667,
      "_tre": 1668,
      "_oct": 1669,
      "_fra": 1670,
      "_broad": 1671,
      "_begin": 1672,
      "_accept": 1673,
      "_above": 1674,
      "ability": 1675,
      "ops": 1676,
      "etic": 1677,
      "_express": 1678,
      "_uk": 1679,
      "ember": 1680,
      "_final": 1681,
      "_key": 1682,
      "_mac": 1683,
      "_dece": 1684,
      "_gold": 1685,
      "yr": 1686,
      "_vict": 1687,
      "_plan": 1688,
      "_itself": 1689,
      "_upon": 1690,
      "_seen": 1691,
      "_culture": 1692,
      "ored": 1693,
      "_find": 1694,
      "_references": 1695,
      "reme": 1696,
      "_avail": 1697,
      "vision": 1698,
      "_days": 1699,
      "_cross": 1700,
      "ai": 1701,
      "ising": 1702,
      "_prom": 1703,
      "_jewish": 1704,
      "_largest": 1705,
      "_wind": 1706,
      "_once": 1707,
      "und": 1708,
      "_territ": 1709,
      "_init": 1710,
      "mit": 1711,
      "_created": 1712,
      "_role": 1713,
      "hern": 1714,
      "_foreign": 1715,
      "_almost": 1716,
      "_james": 1717,
      "_profess": 1718,
      "_region": 1719,
      "_rich": 1720,
      "ief": 1721,
      "_help": 1722,
      "_type": 1723,
      "_code": 1724,
      "_software": 1725,
      "_religious": 1726,
      "_nav": 1727,
      "_latin": 1728,
      "_mach": 1729,
      "osp": 1730,
      "_bc": 1731,
      "_numbers": 1732,
      "_sel": 1733,
      "ying": 1734,
      "_alex": 1735,
      "_january": 1736,
      "_member": 1737,
      "uck": 1738,
      "_album": 1739,
      "_site": 1740,
      "_living": 1741,
      "sequ": 1742,
      "craft": 1743,
      "_dig": 1744,
      "_dou": 1745,
      "_cost": 1746,
      "_areas": 1747,
      "acks": 1748,
      "_tur": 1749,
      "_image": 1750,
      "ications": 1751,
      "_hit": 1752,
      "aces": 1753,
      "ensive": 1754,
      "ille": 1755,
      "_david": 1756,
      "_miss": 1757,
      "_ren": 1758,
      "_community": 1759,
      "_quest": 1760,
      "_close": 1761,
      "bol": 1762,
      "_ess": 1763,
      "val": 1764,
      "_ancient": 1765,
      "_fri": 1766,
      "ators": 1767,
      "oms": 1768,
      "go": 1769,
      "ax": 1770,
      "sel": 1771,
      "_related": 1772,
      "_thought": 1773,
      "_source": 1774,
      "_played": 1775,
      "_league": 1776,
      "_rights": 1777,
      "ald": 1778,
      "_movement": 1779,
      "_pain": 1780,
      "_production": 1781,
      "let": 1782,
      "_died": 1783,
      "_redu": 1784,
      "_research": 1785,
      "iate": 1786,
      "_change": 1787,
      "_terms": 1788,
      "_energy": 1789,
      "ploy": 1790,
      "rian": 1791,
      "cer": 1792,
      "_minister": 1793,
      "_tal": 1794,
      "rict": 1795,
      "_domin": 1796,
      "_mov": 1797,
      "_exam": 1798,
      "_northern": 1799,
      "_tour": 1800,
      "_march": 1801,
      "_meaning": 1802,
      "umb": 1803,
      "here": 1804,
      "_parli": 1805,
      "ending": 1806,
      "hers": 1807,
      "_conn": 1808,
      "_establ": 1809,
      "_complex": 1810,
      "_fire": 1811,
      "side": 1812,
      "_feder": 1813,
      "ford": 1814,
      "ril": 1815,
      "aries": 1816,
      "_december": 1817,
      "_might": 1818,
      "_admin": 1819,
      "_produced": 1820,
      "rug": 1821,
      "_market": 1822,
      "ingu": 1823,
      "_earli": 1824,
      "_sent": 1825,
      "_exec": 1826,
      "_priv": 1827,
      "_canada": 1828,
      "_polic": 1829,
      "_william": 1830,
      "_pap": 1831,
      "_making": 1832,
      "asing": 1833,
      "_hor": 1834,
      "ead": 1835,
      "ples": 1836,
      "inese": 1837,
      "ca": 1838,
      "_prob": 1839,
      "ected": 1840,
      "_middle": 1841,
      "_style": 1842,
      "_cover": 1843,
      "_forms": 1844,
      "_won": 1845,
      "_next": 1846,
      "ificant": 1847,
      "ude": 1848,
      "_env": 1849,
      "_parliament": 1850,
      "_programm": 1851,
      "_stre": 1852,
      "_green": 1853,
      "_span": 1854,
      "_available": 1855,
      "_doc": 1856,
      "_program": 1857,
      "_japanese": 1858,
      "cle": 1859,
      "_say": 1860,
      "_abs": 1861,
      "ria": 1862,
      "_eastern": 1863,
      "_cann": 1864,
      "put": 1865,
      "_women": 1866,
      "_chinese": 1867,
      "_released": 1868,
      "_becom": 1869,
      "oint": 1870,
      "ints": 1871,
      "_established": 1872,
      "_radio": 1873,
      "_half": 1874,
      "_recogn": 1875,
      "_significant": 1876,
      "_suggest": 1877,
      "_pred": 1878,
      "_toget": 1879,
      "_george": 1880,
      "atures": 1881,
      "_lou": 1882,
      "_constitution": 1883,
      "_television": 1884,
      "_ox": 1885,
      "_pot": 1886,
      "_inte": 1887,
      "ham": 1888,
      "_together": 1889,
      "_except": 1890,
      "_get": 1891,
      "_mathemat": 1892,
      "_catholic": 1893,
      "_condition": 1894,
      "_sept": 1895,
      "_charles": 1896,
      "ows": 1897,
      "_arab": 1898,
      "_july": 1899,
      "thern": 1900,
      "_subst": 1901,
      "iron": 1902,
      "ino": 1903,
      "arily": 1904,
      "_bur": 1905,
      "_paul": 1906,
      "_neg": 1907,
      "_viol": 1908,
      "_parts": 1909,
      "_china": 1910,
      "ych": 1911,
      "_instead": 1912,
      "ining": 1913,
      "_love": 1914,
      "utions": 1915,
      "_underst": 1916,
      "_account": 1917,
      "_altern": 1918,
      "_deg": 1919,
      "_fail": 1920,
      "_built": 1921,
      "_business": 1922,
      "_heav": 1923,
      "_compet": 1924,
      "_attack": 1925,
      "_football": 1926,
      "_least": 1927,
      "_ur": 1928,
      "_india": 1929,
      "_revolution": 1930,
      "lam": 1931,
      "ka": 1932,
      "uel": 1933,
      "_indian": 1934,
      "_big": 1935,
      "_stri": 1936,
      "omb": 1937,
      "_capt": 1938,
      "mon": 1939,
      "_traditional": 1940,
      "_dut": 1941,
      "_que": 1942,
      "_note": 1943,
      "face": 1944,
      "_study": 1945,
      "_model": 1946,
      "_cro": 1947,
      "_included": 1948,
      "_june": 1949,
      "_emperor": 1950,
      "br": 1951,
      "_coast": 1952,
      "edia": 1953,
      "_cit": 1954,
      "orts": 1955,
      "_trade": 1956,
      "ering": 1957,
      "_young": 1958,
      "used": 1959,
      "chan": 1960,
      "_commit": 1961,
      "_food": 1962,
      "_environ": 1963,
      "_nove": 1964,
      "_always": 1965,
      "_determ": 1966,
      "_pen": 1967,
      "rican": 1968,
      "_range": 1969,
      "rote": 1970,
      "to": 1971,
      "_actor": 1972,
      "apt": 1973,
      "_live": 1974,
      "_cast": 1975,
      "_sit": 1976,
      "_entire": 1977,
      "_os": 1978,
      "ipp": 1979,
      "_prime": 1980,
      "inal": 1981,
      "ray": 1982,
      "_put": 1983,
      "_past": 1984,
      "ched": 1985,
      "_aud": 1986,
      "_san": 1987,
      "_spir": 1988,
      "_trib": 1989,
      "uth": 1990,
      "_taken": 1991,
      "_sold": 1992,
      "ems": 1993,
      "_november": 1994,
      "_ic": 1995,
      "_secret": 1996,
      "_economy": 1997,
      "_nature": 1998,
      "ban": 1999,
      "_constant": 2000,
      "ama": 2001,
      "ober": 2002,
      "_lord": 2003,
      "_access": 2004,
      "icult": 2005,
      "rary": 2006,
      "ror": 2007,
      "_self": 2008,
      "_previous": 2009,
      "_october": 2010,
      "_southern": 2011,
      "_jour": 2012,
      "_lost": 2013,
      "_ach": 2014,
      "_ben": 2015,
      "_our": 2016,
      "_fight": 2017,
      "rie": 2018,
      "_relative": 2019,
      "_temper": 2020,
      "_april": 2021,
      "_gal": 2022,
      "_players": 2023,
      "gor": 2024,
      "_creat": 2025,
      "_cho": 2026,
      "ffic": 2027,
      "ront": 2028,
      "_mart": 2029,
      "_uses": 2030,
      "_true": 2031,
      "ux": 2032,
      "_spanish": 2033,
      "_problem": 2034,
      "com": 2035,
      "_grand": 2036,
      "ental": 2037,
      "ered": 2038,
      "_value": 2039,
      "_recent": 2040,
      "_desp": 2041,
      "_fig": 2042,
      "_italian": 2043,
      "_wrote": 2044,
      "_interp": 2045,
      "selves": 2046,
      "_network": 2047,
      "isc": 2048,
      "_lower": 2049,
      "rica": 2050,
      "_technology": 2051,
      "_sen": 2052,
      "burg": 2053,
      "_hyd": 2054,
      "_september": 2055,
      "_evidence": 2056,
      "_invest": 2057,
      "_rule": 2058,
      "_coll": 2059,
      "ii": 2060,
      "_done": 2061,
      "_squ": 2062,
      "_royal": 2063,
      "ked": 2064,
      "_impro": 2065,
      "pr": 2066,
      "_color": 2067,
      "_mich": 2068,
      "_frank": 2069,
      "_distin": 2070,
      "_reform": 2071,
      "_historical": 2072,
      "ara": 2073,
      "_fund": 2074,
      "_commer": 2075,
      "ira": 2076,
      "_africa": 2077,
      "_prote": 2078,
      "_sain": 2079,
      "_hon": 2080,
      "_come": 2081,
      "_difficult": 2082,
      "_symbol": 2083,
      "ien": 2084,
      "_whose": 2085,
      "_administ": 2086,
      "_bud": 2087,
      "eth": 2088,
      "_names": 2089,
      "_ec": 2090,
      "_respect": 2091,
      "ery": 2092,
      "ume": 2093,
      "_australia": 2094,
      "_ever": 2095,
      "_season": 2096,
      "_particularly": 2097,
      "_feb": 2098,
      "_philosophy": 2099,
      "arn": 2100,
      "_cases": 2101,
      "_themselves": 2102,
      "af": 2103,
      "_fut": 2104,
      "ption": 2105,
      "_species": 2106,
      "_psych": 2107,
      "_thom": 2108,
      "_convent": 2109,
      "ceed": 2110,
      "_influence": 2111,
      "_rate": 2112,
      "_structure": 2113,
      "_reason": 2114,
      "ym": 2115,
      "_phot": 2116,
      "_distrib": 2117,
      "_nations": 2118,
      "_russian": 2119,
      "acy": 2120,
      "_sil": 2121,
      "_hop": 2122,
      "_referred": 2123,
      "asc": 2124,
      "gypt": 2125,
      "_feature": 2126,
      "_dam": 2127,
      "_below": 2128,
      "_vide": 2129,
      "_minor": 2130,
      "_egypt": 2131,
      "_adop": 2132,
      "_environment": 2133,
      "ana": 2134,
      "_throughout": 2135,
      "_here": 2136,
      "_african": 2137,
      "_continued": 2138,
      "ledge": 2139,
      "_irish": 2140,
      "_colon": 2141,
      "ta": 2142,
      "_robert": 2143,
      "_too": 2144,
      "_whether": 2145,
      "_education": 2146,
      "_therefore": 2147,
      "_step": 2148,
      "_ground": 2149,
      "_laws": 2150,
      "_ten": 2151,
      "_ire": 2152,
      "ky": 2153,
      "_title": 2154,
      "_night": 2155,
      "_mechan": 2156,
      "_definition": 2157,
      "bon": 2158,
      "_travel": 2159,
      "_democr": 2160,
      "ucle": 2161,
      "_critic": 2162,
      "_wee": 2163,
      "uments": 2164,
      "_clear": 2165,
      "_brother": 2166,
      "_sam": 2167,
      "_higher": 2168,
      "_films": 2169,
      "_command": 2170,
      "_action": 2171,
      "_amount": 2172,
      "_host": 2173,
      "_jews": 2174,
      "_febru": 2175,
      "_legal": 2176,
      "uf": 2177,
      "_techni": 2178,
      "_originally": 2179,
      "_fav": 2180,
      "_february": 2181,
      "_tar": 2182,
      "_electron": 2183,
      "_cry": 2184,
      "itz": 2185,
      "_cities": 2186,
      "_elements": 2187,
      "_sn": 2188,
      "_peace": 2189,
      "_specific": 2190,
      "ula": 2191,
      "ney": 2192,
      "rad": 2193,
      "_discuss": 2194,
      "_independent": 2195,
      "_eventually": 2196,
      "_vo": 2197,
      "_internet": 2198,
      "_award": 2199,
      "_park": 2200,
      "_ut": 2201,
      "_instr": 2202,
      "_acad": 2203,
      "_necess": 2204,
      "_described": 2205,
      "of": 2206,
      "_successful": 2207,
      "_bank": 2208,
      "istics": 2209,
      "oman": 2210,
      "erous": 2211,
      "bit": 2212,
      "_despite": 2213,
      "ached": 2214,
      "oney": 2215,
      "ael": 2216,
      "_characters": 2217,
      "_problems": 2218,
      "_female": 2219,
      "_chief": 2220,
      "_speak": 2221,
      "_agree": 2222,
      "_nucle": 2223,
      "ially": 2224,
      "_rail": 2225,
      "ming": 2226,
      "_discover": 2227,
      "_islam": 2228,
      "_office": 2229,
      "_multip": 2230,
      "_able": 2231,
      "_disp": 2232,
      "_formed": 2233,
      "_practice": 2234,
      "clus": 2235,
      "_mur": 2236,
      "_speed": 2237,
      "_schol": 2238,
      "_maint": 2239,
      "ateg": 2240,
      "_web": 2241,
      "_contrib": 2242,
      "_belief": 2243,
      "_commonly": 2244,
      "_fiction": 2245,
      "_events": 2246,
      "duct": 2247,
      "ires": 2248,
      "_purp": 2249,
      "lands": 2250,
      "ply": 2251,
      "ari": 2252,
      "lim": 2253,
      "_mother": 2254,
      "den": 2255,
      "king": 2256,
      "_male": 2257,
      "bal": 2258,
      "ques": 2259,
      "istan": 2260,
      "_indic": 2261,
      "_blood": 2262,
      "_received": 2263,
      "_bit": 2264,
      "_ord": 2265,
      "_writer": 2266,
      "_page": 2267,
      "_personal": 2268,
      "_orth": 2269,
      "uation": 2270,
      "atives": 2271,
      "_outside": 2272,
      "asion": 2273,
      "imately": 2274,
      "_typically": 2275,
      "ste": 2276,
      "_blue": 2277,
      "ours": 2278,
      "_look": 2279,
      "_alph": 2280,
      "_basic": 2281,
      "_types": 2282,
      "_lay": 2283,
      "iding": 2284,
      "ounced": 2285,
      "ston": 2286,
      "_followed": 2287,
      "_relationship": 2288,
      "inary": 2289,
      "_actually": 2290,
      "_includes": 2291,
      "_aircraft": 2292,
      "_dial": 2293,
      "ards": 2294,
      "rick": 2295,
      "_ze": 2296,
      "rap": 2297,
      "_conserv": 2298,
      "aring": 2299,
      "_calif": 2300,
      "_tex": 2301,
      "ades": 2302,
      "_pow": 2303,
      "aged": 2304,
      "aves": 2305,
      "_henry": 2306,
      "_controvers": 2307,
      "_inde": 2308,
      "_widely": 2309,
      "_scientific": 2310,
      "_micro": 2311,
      "_went": 2312,
      "_champ": 2313,
      "_intell": 2314,
      "_californ": 2315,
      "lement": 2316,
      "key": 2317,
      "_physical": 2318,
      "_beginning": 2319,
      "_fac": 2320,
      "_dyn": 2321,
      "wor": 2322,
      "urity": 2323,
      "_academ": 2324,
      "_deaths": 2325,
      "nal": 2326,
      "_jes": 2327,
      "_defe": 2328,
      "itor": 2329,
      "_detail": 2330,
      "_occup": 2331,
      "anted": 2332,
      "_building": 2333,
      "ung": 2334,
      "_offer": 2335,
      "isl": 2336,
      "_future": 2337,
      "ania": 2338,
      "_club": 2339,
      "_letter": 2340,
      "_spirit": 2341,
      "_size": 2342,
      "_hall": 2343,
      "_transport": 2344,
      "_flow": 2345,
      "_cause": 2346,
      "_leader": 2347,
      "_leaders": 2348,
      "_bul": 2349,
      "_britain": 2350,
      "_cannot": 2351,
      "_dead": 2352,
      "oted": 2353,
      "_employ": 2354,
      "_surv": 2355,
      "_ireland": 2356,
      "ression": 2357,
      "_wood": 2358,
      "_extreme": 2359,
      "oll": 2360,
      "_compos": 2361,
      "_simply": 2362,
      "_front": 2363,
      "_wall": 2364,
      "utes": 2365,
      "_ib": 2366,
      "_webs": 2367,
      "_industry": 2368,
      "_dri": 2369,
      "_services": 2370,
      "_liberal": 2371,
      "onst": 2372,
      "_approx": 2373,
      "_ven": 2374,
      "_elected": 2375,
      "_consist": 2376,
      "_knowledge": 2377,
      "_hydro": 2378,
      "oses": 2379,
      "_cut": 2380,
      "_canadian": 2381,
      "_defined": 2382,
      "_believe": 2383,
      "_increasing": 2384,
      "bc": 2385,
      "_quant": 2386,
      "ify": 2387,
      "ties": 2388,
      "_max": 2389,
      "_examples": 2390,
      "_soon": 2391,
      "_edition": 2392,
      "_respons": 2393,
      "_electric": 2394,
      "_stra": 2395,
      "_writing": 2396,
      "_emb": 2397,
      "_california": 2398,
      "the": 2399,
      "_collect": 2400,
      "_health": 2401,
      "_pun": 2402,
      "_births": 2403,
      "rial": 2404,
      "_your": 2405,
      "iers": 2406,
      "_bran": 2407,
      "itect": 2408,
      "ha": 2409,
      "_intellig": 2410,
      "_tim": 2411,
      "_leng": 2412,
      "_louis": 2413,
      "_video": 2414,
      "_federal": 2415,
      "_cam": 2416,
      "odes": 2417,
      "_sense": 2418,
      "_achie": 2419,
      "ands": 2420,
      "ago": 2421,
      "_franc": 2422,
      "hib": 2423,
      "igh": 2424,
      "_birth": 2425,
      "_architect": 2426,
      "ump": 2427,
      "_idea": 2428,
      "ises": 2429,
      "_deal": 2430,
      "_yet": 2431,
      "_points": 2432,
      "_organization": 2433,
      "_independence": 2434,
      "_associated": 2435,
      "_fle": 2436,
      "_mess": 2437,
      "atory": 2438,
      "cript": 2439,
      "_road": 2440,
      "_nob": 2441,
      "ysis": 2442,
      "_separate": 2443,
      "_mi": 2444,
      "_experim": 2445,
      "_integr": 2446,
      "_classical": 2447,
      "_chemical": 2448,
      "_movie": 2449,
      "_required": 2450,
      "_introduced": 2451,
      "_meet": 2452,
      "ement": 2453,
      "_majority": 2454,
      "_mix": 2455,
      "_reb": 2456,
      "_designed": 2457,
      "_hung": 2458,
      "iff": 2459,
      "_dim": 2460,
      "_ham": 2461,
      "_resour": 2462,
      "ole": 2463,
      "_magn": 2464,
      "_religion": 2465,
      "ufact": 2466,
      "aut": 2467,
      "_ban": 2468,
      "_bab": 2469,
      "_away": 2470,
      "_manufact": 2471,
      "ibility": 2472,
      "_element": 2473,
      "_changes": 2474,
      "_located": 2475,
      "_believed": 2476,
      "_wat": 2477,
      "_private": 2478,
      "_citiz": 2479,
      "anding": 2480,
      "_county": 2481,
      "ols": 2482,
      "_studies": 2483,
      "_gas": 2484,
      "_chann": 2485,
      "_foc": 2486,
      "wer": 2487,
      "_assemb": 2488,
      "_jose": 2489,
      "_aver": 2490,
      "uit": 2491,
      "_prec": 2492,
      "_rules": 2493,
      "_nation": 2494,
      "_corpor": 2495,
      "_features": 2496,
      "_working": 2497,
      "_started": 2498,
      "_policy": 2499,
      "_iv": 2500,
      "_chap": 2501,
      "_continu": 2502,
      "_poly": 2503,
      "action": 2504,
      "_corn": 2505,
      "omp": 2506,
      "_congress": 2507,
      "_currently": 2508,
      "_cub": 2509,
      "_brought": 2510,
      "_gun": 2511,
      "_depart": 2512,
      "istry": 2513,
      "_muse": 2514,
      "_pron": 2515,
      "_russia": 2516,
      "_nar": 2517,
      "_earlier": 2518,
      "_election": 2519,
      "_rh": 2520,
      "_thomas": 2521,
      "_sem": 2522,
      "_alle": 2523,
      "_labor": 2524,
      "_document": 2525,
      "_sequ": 2526,
      "uk": 2527,
      "_unit": 2528,
      "ension": 2529,
      "_displ": 2530,
      "vin": 2531,
      "_sus": 2532,
      "berg": 2533,
      "_hyp": 2534,
      "hel": 2535,
      "_tax": 2536,
      "_sources": 2537,
      "rated": 2538,
      "_provide": 2539,
      "_association": 2540,
      "wh": 2541,
      "_emer": 2542,
      "_things": 2543,
      "_myth": 2544,
      "_allowed": 2545,
      "cies": 2546,
      "_online": 2547,
      "_greater": 2548,
      "_australian": 2549,
      "_kind": 2550,
      "_evolution": 2551,
      "_oil": 2552,
      "_poet": 2553,
      "cent": 2554,
      "_added": 2555,
      "_media": 2556,
      "_question": 2557,
      "_glo": 2558,
      "_across": 2559,
      "_destro": 2560,
      "_founded": 2561,
      "ilities": 2562,
      "_address": 2563,
      "_mis": 2564,
      "_limited": 2565,
      "_rob": 2566,
      "_mostly": 2567,
      "_simple": 2568,
      "_effects": 2569,
      "_bound": 2570,
      "_sup": 2571,
      "_quick": 2572,
      "_pit": 2573,
      "_dise": 2574,
      "_security": 2575,
      "_saw": 2576,
      "_require": 2577,
      "_gar": 2578,
      "ishing": 2579,
      "_imper": 2580,
      "_probably": 2581,
      "_reference": 2582,
      "_drug": 2583,
      "_career": 2584,
      "_stories": 2585,
      "_break": 2586,
      "_freed": 2587,
      "ened": 2588,
      "_mind": 2589,
      "_cart": 2590,
      "ulf": 2591,
      "_atl": 2592,
      "_appoint": 2593,
      "_behav": 2594,
      "_gave": 2595,
      "_museum": 2596,
      "_pict": 2597,
      "_counter": 2598,
      "use": 2599,
      "_id": 2600,
      "_mel": 2601,
      "ga": 2602,
      "_remains": 2603,
      "_autom": 2604,
      "cast": 2605,
      "_longer": 2606,
      "_mole": 2607,
      "_holy": 2608,
      "_confl": 2609,
      "_give": 2610,
      "_legisl": 2611,
      "_growth": 2612,
      "_swed": 2613,
      "_killed": 2614,
      "_prevent": 2615,
      "bor": 2616,
      "enced": 2617,
      "cles": 2618,
      "_keep": 2619,
      "_theore": 2620,
      "_fell": 2621,
      "_hill": 2622,
      "_commercial": 2623,
      "_length": 2624,
      "_letters": 2625,
      "_protest": 2626,
      "_richard": 2627,
      "rest": 2628,
      "_leading": 2629,
      "_pie": 2630,
      "_library": 2631,
      "ready": 2632,
      "_website": 2633,
      "_better": 2634,
      "_etc": 2635,
      "stein": 2636,
      "odox": 2637,
      "_famil": 2638,
      "_contains": 2639,
      "_remained": 2640,
      "_calcul": 2641,
      "_corre": 2642,
      "ij": 2643,
      "_jer": 2644,
      "ffer": 2645,
      "_tom": 2646,
      "ctr": 2647,
      "_kar": 2648,
      "_largely": 2649,
      "ediate": 2650,
      "_lake": 2651,
      "_spain": 2652,
      "isms": 2653,
      "_tor": 2654,
      "_moved": 2655,
      "_expect": 2656,
      "_months": 2657,
      "_larger": 2658,
      "_division": 2659,
      "hab": 2660,
      "_weap": 2661,
      "_obser": 2662,
      "ulated": 2663,
      "ference": 2664,
      "_bene": 2665,
      "_graph": 2666,
      "_already": 2667,
      "_rout": 2668,
      "haps": 2669,
      "_cust": 2670,
      "_perhaps": 2671,
      "_prince": 2672,
      "_epis": 2673,
      "hest": 2674,
      "_opt": 2675,
      "_scott": 2676,
      "ground": 2677,
      "_saint": 2678,
      "iting": 2679,
      "_territory": 2680,
      "antic": 2681,
      "_dutch": 2682,
      "isions": 2683,
      "gon": 2684,
      "ights": 2685,
      "_parties": 2686,
      "_politics": 2687,
      "_establish": 2688,
      "wood": 2689,
      "_bond": 2690,
      "_cultural": 2691,
      "_rat": 2692,
      "_lack": 2693,
      "_fort": 2694,
      "_matter": 2695,
      "_makes": 2696,
      "_vari": 2697,
      "_companies": 2698,
      "_whole": 2699,
      "_guit": 2700,
      "ls": 2701,
      "_agric": 2702,
      "_wife": 2703,
      "_brown": 2704,
      "_fair": 2705,
      "_iii": 2706,
      "_lines": 2707,
      "_double": 2708,
      "_loss": 2709,
      "_wik": 2710,
      "_subsequ": 2711,
      "_appeared": 2712,
      "onic": 2713,
      "rast": 2714,
      "_round": 2715,
      "_pan": 2716,
      "_directly": 2717,
      "_era": 2718,
      "_orthodox": 2719,
      "_ey": 2720,
      "_oce": 2721,
      "_rap": 2722,
      "_ax": 2723,
      "_products": 2724,
      "_subs": 2725,
      "_results": 2726,
      "omin": 2727,
      "_produce": 2728,
      "_bow": 2729,
      "_asia": 2730,
      "_italy": 2731,
      "aign": 2732,
      "men": 2733,
      "_fif": 2734,
      "_happ": 2735,
      "_scot": 2736,
      "aching": 2737,
      "_surface": 2738,
      "_pay": 2739,
      "_ethn": 2740,
      "_conver": 2741,
      "itude": 2742,
      "_highly": 2743,
      "ura": 2744,
      "_muslim": 2745,
      "urs": 2746,
      "_alexander": 2747,
      "win": 2748,
      "_particip": 2749,
      "_caused": 2750,
      "_status": 2751,
      "_authority": 2752,
      "_journal": 2753,
      "asons": 2754,
      "_creation": 2755,
      "ey": 2756,
      "_anth": 2757,
      "lying": 2758,
      "ico": 2759,
      "_beg": 2760,
      "_latter": 2761,
      "_ult": 2762,
      "_invent": 2763,
      "_literature": 2764,
      "_wil": 2765,
      "_campaign": 2766,
      "_conflict": 2767,
      "_cd": 2768,
      "_native": 2769,
      "_map": 2770,
      "resp": 2771,
      "_towards": 2772,
      "ris": 2773,
      "_hot": 2774,
      "_heart": 2775,
      "otes": 2776,
      "_kh": 2777,
      "_faith": 2778,
      "ya": 2779,
      "_playing": 2780,
      "kn": 2781,
      "_regular": 2782,
      "ithm": 2783,
      "_implement": 2784,
      "_ww": 2785,
      "like": 2786,
      "_whom": 2787,
      "_concern": 2788,
      "_metal": 2789,
      "_singer": 2790,
      "ift": 2791,
      "_treaty": 2792,
      "_primary": 2793,
      "_cand": 2794,
      "_board": 2795,
      "_becomes": 2796,
      "_carbon": 2797,
      "_agricult": 2798,
      "_date": 2799,
      "_fer": 2800,
      "hol": 2801,
      "bb": 2802,
      "_washing": 2803,
      "_basis": 2804,
      "_analysis": 2805,
      "fl": 2806,
      "ores": 2807,
      "_enough": 2808,
      "_rare": 2809,
      "_married": 2810,
      "_digital": 2811,
      "ician": 2812,
      "_prize": 2813,
      "_magaz": 2814,
      "_camb": 2815,
      "het": 2816,
      "_dark": 2817,
      "_director": 2818,
      "_cele": 2819,
      "onents": 2820,
      "_lic": 2821,
      "_likely": 2822,
      "_course": 2823,
      "_issues": 2824,
      "_virt": 2825,
      "_programming": 2826,
      "_tv": 2827,
      "_laun": 2828,
      "_property": 2829,
      "_sha": 2830,
      "ee": 2831,
      "_sac": 2832,
      "_flag": 2833,
      "_van": 2834,
      "_think": 2835,
      "_district": 2836,
      "_release": 2837,
      "_peter": 2838,
      "ables": 2839,
      "_fal": 2840,
      "_machine": 2841,
      "ging": 2842,
      "_consum": 2843,
      "_joseph": 2844,
      "_money": 2845,
      "uries": 2846,
      "_alternative": 2847,
      "_rome": 2848,
      "_columb": 2849,
      "for": 2850,
      "_hero": 2851,
      "_remain": 2852,
      "ream": 2853,
      "_na": 2854,
      "_draw": 2855,
      "_provided": 2856,
      "icated": 2857,
      "aff": 2858,
      "_paris": 2859,
      "_smaller": 2860,
      "_smith": 2861,
      "_functions": 2862,
      "sh": 2863,
      "_jesus": 2864,
      "ini": 2865,
      "_divided": 2866,
      "_average": 2867,
      "view": 2868,
      "_memory": 2869,
      "cycl": 2870,
      "_replaced": 2871,
      "_saf": 2872,
      "_ira": 2873,
      "_degree": 2874,
      "bra": 2875,
      "_mc": 2876,
      "_los": 2877,
      "respond": 2878,
      "wise": 2879,
      "ection": 2880,
      "_dog": 2881,
      "_slow": 2882,
      "_gradu": 2883,
      "_correspond": 2884,
      "_claims": 2885,
      "_washington": 2886,
      "_mary": 2887,
      "_commission": 2888,
      "_measure": 2889,
      "ously": 2890,
      "_nearly": 2891,
      "_vill": 2892,
      "ivity": 2893,
      "_queen": 2894,
      "_wars": 2895,
      "_actress": 2896,
      "_medical": 2897,
      "_distinct": 2898,
      "_pac": 2899,
      "_kore": 2900,
      "_progress": 2901,
      "_mas": 2902,
      "oura": 2903,
      "_musical": 2904,
      "va": 2905,
      "_section": 2906,
      "_gn": 2907,
      "_quar": 2908,
      "_table": 2909,
      "_notable": 2910,
      "_review": 2911,
      "_bish": 2912,
      "_claimed": 2913,
      "_contem": 2914,
      "_destroy": 2915,
      "edy": 2916,
      "_industrial": 2917,
      "porary": 2918,
      "_recently": 2919,
      "_records": 2920,
      "col": 2921,
      "_controll": 2922,
      "can": 2923,
      "da": 2924,
      "fect": 2925,
      "_collection": 2926,
      "_portug": 2927,
      "_daught": 2928,
      "_sexual": 2929,
      "_ple": 2930,
      "_animals": 2931,
      "_schools": 2932,
      "_involved": 2933,
      "_finally": 2934,
      "izations": 2935,
      "_heb": 2936,
      "_performance": 2937,
      "_finan": 2938,
      "iles": 2939,
      "_variety": 2940,
      "_elections": 2941,
      "_changed": 2942,
      "_paper": 2943,
      "_bay": 2944,
      "_frequently": 2945,
      "_inn": 2946,
      "utive": 2947,
      "oid": 2948,
      "_heavy": 2949,
      "_bbc": 2950,
      "_assum": 2951,
      "_highest": 2952,
      "_sens": 2953,
      "_thous": 2954,
      "_encycl": 2955,
      "_methods": 2956,
      "_ice": 2957,
      "_democratic": 2958,
      "_ideas": 2959,
      "_algor": 2960,
      "_michael": 2961,
      "ding": 2962,
      "_cred": 2963,
      "_served": 2964,
      "_programs": 2965,
      "_electr": 2966,
      "arent": 2967,
      "_street": 2968,
      "ont": 2969,
      "oe": 2970,
      "_die": 2971,
      "thing": 2972,
      "field": 2973,
      "_user": 2974,
      "izing": 2975,
      "_increased": 2976,
      "iant": 2977,
      "_medic": 2978,
      "_students": 2979,
      "_deli": 2980,
      "_border": 2981,
      "_station": 2982,
      "_relatively": 2983,
      "_observ": 2984,
      "_burn": 2985,
      "_intel": 2986,
      "_discovered": 2987,
      "_astron": 2988,
      "cks": 2989,
      "ush": 2990,
      "_increase": 2991,
      "_objects": 2992,
      "_conditions": 2993,
      "ips": 2994,
      "ech": 2995,
      "_ans": 2996,
      "_dialect": 2997,
      "_angel": 2998,
      "olf": 2999,
      "omy": 3000,
      "_returned": 3001,
      "_existence": 3002,
      "_mention": 3003,
      "_appears": 3004,
      "_takes": 3005,
      "_guitar": 3006,
      "_encyclop": 3007,
      "_wit": 3008,
      "_baseball": 3009,
      "_committe": 3010,
      "itation": 3011,
      "_assembly": 3012,
      "_mad": 3013,
      "_nuclear": 3014,
      "_dar": 3015,
      "_adopted": 3016,
      "_operation": 3017,
      "_od": 3018,
      "_perm": 3019,
      "_poor": 3020,
      "_prior": 3021,
      "ope": 3022,
      "_diss": 3023,
      "uge": 3024,
      "_pack": 3025,
      "_amb": 3026,
      "ields": 3027,
      "iter": 3028,
      "_week": 3029,
      "_active": 3030,
      "_incor": 3031,
      "_universe": 3032,
      "_concent": 3033,
      "_philosop": 3034,
      "_normal": 3035,
      "ridge": 3036,
      "ners": 3037,
      "_institute": 3038,
      "_tend": 3039,
      "_htt": 3040,
      "_ocean": 3041,
      "_assist": 3042,
      "_cel": 3043,
      "_experience": 3044,
      "_professional": 3045,
      "_taking": 3046,
      "_deep": 3047,
      "well": 3048,
      "_lad": 3049,
      "hood": 3050,
      "_numerous": 3051,
      "_hebrew": 3052,
      "mar": 3053,
      "_create": 3054,
      "ship": 3055,
      "_plat": 3056,
      "_ros": 3057,
      "off": 3058,
      "_pressure": 3059,
      "_immediate": 3060,
      "_behind": 3061,
      "_powers": 3062,
      "ibly": 3063,
      "_sin": 3064,
      "_conte": 3065,
      "_file": 3066,
      "_naz": 3067,
      "_chic": 3068,
      "_unlike": 3069,
      "pper": 3070,
      "_alge": 3071,
      "_accepted": 3072,
      "_cru": 3073,
      "_construction": 3074,
      "_something": 3075,
      "_wa": 3076,
      "cell": 3077,
      "anced": 3078,
      "_issue": 3079,
      "_francis": 3080,
      "_citizens": 3081,
      "_estim": 3082,
      "_potential": 3083,
      "_dia": 3084,
      "_iron": 3085,
      "_reported": 3086,
      "_frac": 3087,
      "_gro": 3088,
      "_formal": 3089,
      "_sett": 3090,
      "_stage": 3091,
      "_primarily": 3092,
      "_insp": 3093,
      "_box": 3094,
      "_resources": 3095,
      "_exch": 3096,
      "_categ": 3097,
      "wa": 3098,
      "umn": 3099,
      "_pattern": 3100,
      "_print": 3101,
      "_centre": 3102,
      "_master": 3103,
      "ately": 3104,
      "_hab": 3105,
      "_kil": 3106,
      "_recorded": 3107,
      "_ip": 3108,
      "_defense": 3109,
      "_applied": 3110,
      "_bad": 3111,
      "_scholars": 3112,
      "_aspect": 3113,
      "_boy": 3114,
      "_mission": 3115,
      "_hell": 3116,
      "_resist": 3117,
      "_twent": 3118,
      "_luc": 3119,
      "_instance": 3120,
      "_descript": 3121,
      "_shows": 3122,
      "_lived": 3123,
      "_conqu": 3124,
      "_derived": 3125,
      "_woman": 3126,
      "_governor": 3127,
      "_troops": 3128,
      "_bass": 3129,
      "idents": 3130,
      "_compar": 3131,
      "_target": 3132,
      "oting": 3133,
      "igned": 3134,
      "_mathematics": 3135,
      "_equival": 3136,
      "iance": 3137,
      "_scre": 3138,
      "round": 3139,
      "_org": 3140,
      "_placed": 3141,
      "_roll": 3142,
      "_additional": 3143,
      "_ens": 3144,
      "usion": 3145,
      "_script": 3146,
      "_acqu": 3147,
      "_running": 3148,
      "_engineering": 3149,
      "_freedom": 3150,
      "ba": 3151,
      "_cos": 3152,
      "_impl": 3153,
      "_equal": 3154,
      "_essential": 3155,
      "_square": 3156,
      "_stop": 3157,
      "_channel": 3158,
      "_serious": 3159,
      "_calend": 3160,
      "_articles": 3161,
      "ken": 3162,
      "astic": 3163,
      "_http": 3164,
      "_tun": 3165,
      "_threat": 3166,
      "illa": 3167,
      "_bible": 3168,
      "_notes": 3169,
      "ios": 3170,
      "_select": 3171,
      "_rise": 3172,
      "_transform": 3173,
      "_settle": 3174,
      "onse": 3175,
      "reg": 3176,
      "_units": 3177,
      "_suffer": 3178,
      "_dip": 3179,
      "_mainly": 3180,
      "_chron": 3181,
      "riage": 3182,
      "_pope": 3183,
      "_animal": 3184,
      "orial": 3185,
      "_shown": 3186,
      "_airport": 3187,
      "_magazine": 3188,
      "_neigh": 3189,
      "ki": 3190,
      "iences": 3191,
      "_kings": 3192,
      "_contain": 3193,
      "_windows": 3194,
      "_interpret": 3195,
      "_gall": 3196,
      "_operations": 3197,
      "_convention": 3198,
      "_purpose": 3199,
      "orph": 3200,
      "agement": 3201,
      "_mun": 3202,
      "_writers": 3203,
      "oon": 3204,
      "_mars": 3205,
      "_moon": 3206,
      "_seem": 3207,
      "_mex": 3208,
      "_race": 3209,
      "_quite": 3210,
      "_obt": 3211,
      "_operating": 3212,
      "_levels": 3213,
      "_cens": 3214,
      "_bapt": 3215,
      "_rand": 3216,
      "_temperature": 3217,
      "imum": 3218,
      "ching": 3219,
      "_songs": 3220,
      "_broadcast": 3221,
      "_extra": 3222,
      "_volume": 3223,
      "_plant": 3224,
      "_acid": 3225,
      "_possess": 3226,
      "_exact": 3227,
      "_cells": 3228,
      "_scotland": 3229,
      "_hund": 3230,
      "_sir": 3231,
      "_friends": 3232,
      "_spread": 3233,
      "_fundament": 3234,
      "_budd": 3235,
      "_instrument": 3236,
      "tered": 3237,
      "_comment": 3238,
      "_proposed": 3239,
      "_surround": 3240,
      "med": 3241,
      "_cra": 3242,
      "_pra": 3243,
      "_older": 3244,
      "att": 3245,
      "_try": 3246,
      "_apparent": 3247,
      "_ris": 3248,
      "_duke": 3249,
      "ients": 3250,
      "_ways": 3251,
      "_hous": 3252,
      "_bib": 3253,
      "_consists": 3254,
      "_uns": 3255,
      "abet": 3256,
      "back": 3257,
      "_phen": 3258,
      "xual": 3259,
      "ads": 3260,
      "_navy": 3261,
      "_jul": 3262,
      "_approximately": 3263,
      "_fast": 3264,
      "_bomb": 3265,
      "_albert": 3266,
      "_individuals": 3267,
      "_lie": 3268,
      "_jac": 3269,
      "cher": 3270,
      "ned": 3271,
      "_wr": 3272,
      "dp": 3273,
      "_regions": 3274,
      "_places": 3275,
      "_construct": 3276,
      "rative": 3277,
      "_math": 3278,
      "_hundred": 3279,
      "_climate": 3280,
      "_afg": 3281,
      "_cas": 3282,
      "_face": 3283,
      "_forced": 3284,
      "_communist": 3285,
      "_conne": 3286,
      "_monarch": 3287,
      "_arri": 3288,
      "_compl": 3289,
      "ker": 3290,
      "_centuries": 3291,
      "_gramm": 3292,
      "anian": 3293,
      "_learn": 3294,
      "_response": 3295,
      "_introduction": 3296,
      "ita": 3297,
      "_police": 3298,
      "_distingu": 3299,
      "_forest": 3300,
      "_jack": 3301,
      "aches": 3302,
      "_values": 3303,
      "_committee": 3304,
      "_diam": 3305,
      "_passed": 3306,
      "_appointed": 3307,
      "isation": 3308,
      "_voc": 3309,
      "_rank": 3310,
      "rief": 3311,
      "_chicago": 3312,
      "_friend": 3313,
      "_quickly": 3314,
      "elling": 3315,
      "_percent": 3316,
      "_speech": 3317,
      "_scale": 3318,
      "_refers": 3319,
      "_usa": 3320,
      "_contract": 3321,
      "_properties": 3322,
      "_search": 3323,
      "_repe": 3324,
      "_dat": 3325,
      "hens": 3326,
      "_protect": 3327,
      "_acts": 3328,
      "_internal": 3329,
      "ager": 3330,
      "_ability": 3331,
      "_via": 3332,
      "_lith": 3333,
      "_alco": 3334,
      "_sho": 3335,
      "omm": 3336,
      "erson": 3337,
      "_rot": 3338,
      "_noted": 3339,
      "_cold": 3340,
      "_lingu": 3341,
      "eter": 3342,
      "_clos": 3343,
      "_consequ": 3344,
      "rupt": 3345,
      "_ethnic": 3346,
      "_tree": 3347,
      "_imperial": 3348,
      "_daughter": 3349,
      "_path": 3350,
      "_www": 3351,
      "hic": 3352,
      "_bey": 3353,
      "overy": 3354,
      "gar": 3355,
      "_carry": 3356,
      "_motion": 3357,
      "_nobel": 3358,
      "ola": 3359,
      "_performed": 3360,
      "_champions": 3361,
      "anned": 3362,
      "_sav": 3363,
      "igr": 3364,
      "_comes": 3365,
      "_disease": 3366,
      "gers": 3367,
      "_versions": 3368,
      "_necessary": 3369,
      "_fix": 3370,
      "_attrib": 3371,
      "_direction": 3372,
      "_labour": 3373,
      "_techniques": 3374,
      "_promin": 3375,
      "_unique": 3376,
      "_depend": 3377,
      "_focus": 3378,
      "_worked": 3379,
      "_stars": 3380,
      "_applications": 3381,
      "_von": 3382,
      "_enem": 3383,
      "_reflect": 3384,
      "_treatment": 3385,
      "_haw": 3386,
      "_content": 3387,
      "_flu": 3388,
      "_agreement": 3389,
      "_benef": 3390,
      "_iraq": 3391,
      "_cab": 3392,
      "_arth": 3393,
      "_month": 3394,
      "_supported": 3395,
      "_circum": 3396,
      "onia": 3397,
      "_algebra": 3398,
      "_afghan": 3399,
      "tar": 3400,
      "_infin": 3401,
      "_apple": 3402,
      "_christianity": 3403,
      "_flight": 3404,
      "_transfer": 3405,
      "_demonst": 3406,
      "mark": 3407,
      "_fel": 3408,
      "mp": 3409,
      "_write": 3410,
      "_shot": 3411,
      "aled": 3412,
      "_remo": 3413,
      "_lands": 3414,
      "_affair": 3415,
      "onent": 3416,
      "_summer": 3417,
      "aker": 3418,
      "_braz": 3419,
      "_reading": 3420,
      "_nd": 3421,
      "aur": 3422,
      "_critical": 3423,
      "ville": 3424,
      "_dance": 3425,
      "_les": 3426,
      "olved": 3427,
      "_intended": 3428,
      "_spl": 3429,
      "_computers": 3430,
      "_regarded": 3431,
      "_intelligence": 3432,
      "_rapid": 3433,
      "_calendar": 3434,
      "eral": 3435,
      "_rang": 3436,
      "_mand": 3437,
      "_brain": 3438,
      "_fant": 3439,
      "_conduct": 3440,
      "_prefer": 3441,
      "_gene": 3442,
      "hold": 3443,
      "_cer": 3444,
      "_fat": 3445,
      "_mut": 3446,
      "_catal": 3447,
      "_pil": 3448,
      "_wild": 3449,
      "_spok": 3450,
      "_display": 3451,
      "_fan": 3452,
      "ett": 3453,
      "_reject": 3454,
      "anded": 3455,
      "_connect": 3456,
      "yd": 3457,
      "_mit": 3458,
      "_beyond": 3459,
      "yth": 3460,
      "_speaking": 3461,
      "_il": 3462,
      "_users": 3463,
      "_coal": 3464,
      "osh": 3465,
      "ny": 3466,
      "_humans": 3467,
      "ona": 3468,
      "_jean": 3469,
      "_atom": 3470,
      "_adm": 3471,
      "_sports": 3472,
      "rents": 3473,
      "_bridge": 3474,
      "_figure": 3475,
      "_medicine": 3476,
      "pap": 3477,
      "_ful": 3478,
      "itors": 3479,
      "_location": 3480,
      "_candid": 3481,
      "eria": 3482,
      "phas": 3483,
      "_logic": 3484,
      "_reached": 3485,
      "_branch": 3486,
      "_aim": 3487,
      "_administration": 3488,
      "_jur": 3489,
      "zz": 3490,
      "_rain": 3491,
      "inian": 3492,
      "_conservative": 3493,
      "_brief": 3494,
      "_orient": 3495,
      "_arran": 3496,
      "_billion": 3497,
      "_notably": 3498,
      "_correct": 3499,
      "gn": 3500,
      "_contrast": 3501,
      "_why": 3502,
      "_export": 3503,
      "_arts": 3504,
      "_abb": 3505,
      "oration": 3506,
      "_lif": 3507,
      "_vehic": 3508,
      "_ell": 3509,
      "_joined": 3510,
      "icit": 3511,
      "_sets": 3512,
      "_bring": 3513,
      "_skill": 3514,
      "_approach": 3515,
      "_lu": 3516,
      "pped": 3517,
      "_feel": 3518,
      "_signed": 3519,
      "_berlin": 3520,
      "_province": 3521,
      "_pacific": 3522,
      "_context": 3523,
      "_brazil": 3524,
      "mas": 3525,
      "_financial": 3526,
      "_argument": 3527,
      "_influenced": 3528,
      "_multiple": 3529,
      "_block": 3530,
      "ws": 3531,
      "_actual": 3532,
      "_composer": 3533,
      "_gir": 3534,
      "icted": 3535,
      "_legend": 3536,
      "_celebr": 3537,
      "ada": 3538,
      "_restrict": 3539,
      "_inj": 3540,
      "_department": 3541,
      "_prem": 3542,
      "_miles": 3543,
      "_investig": 3544,
      "_remaining": 3545,
      "_guide": 3546,
      "_provides": 3547,
      "_virgin": 3548,
      "_marriage": 3549,
      "_needed": 3550,
      "oke": 3551,
      "oca": 3552,
      "_polish": 3553,
      "_victor": 3554,
      "_global": 3555,
      "_diction": 3556,
      "outh": 3557,
      "ida": 3558,
      "_cook": 3559,
      "_physics": 3560,
      "_previously": 3561,
      "_custom": 3562,
      "_heat": 3563,
      "ocol": 3564,
      "_ba": 3565,
      "_bob": 3566,
      "_universal": 3567,
      "_doub": 3568,
      "_opposition": 3569,
      "_murder": 3570,
      "where": 3571,
      "ales": 3572,
      "_inhab": 3573,
      "_ga": 3574,
      "_distribution": 3575,
      "rison": 3576,
      "uls": 3577,
      "_synt": 3578,
      "_activity": 3579,
      "_extremely": 3580,
      "_cup": 3581,
      "_share": 3582,
      "_distance": 3583,
      "_coup": 3584,
      "_specif": 3585,
      "_hands": 3586,
      "_translation": 3587,
      "_stated": 3588,
      "_ko": 3589,
      "_sell": 3590,
      "_powerful": 3591,
      "_advanced": 3592,
      "_newspap": 3593,
      "_theories": 3594,
      "_advent": 3595,
      "_stren": 3596,
      "_foundation": 3597,
      "_contemporary": 3598,
      "_ign": 3599,
      "tical": 3600,
      "enth": 3601,
      "_stock": 3602,
      "_shar": 3603,
      "_doctr": 3604,
      "_crim": 3605,
      "ortun": 3606,
      "_prison": 3607,
      "ua": 3608,
      "_allows": 3609,
      "la": 3610,
      "lor": 3611,
      "_track": 3612,
      "_management": 3613,
      "board": 3614,
      "_vow": 3615,
      "_greatest": 3616,
      "_vote": 3617,
      "_mathematical": 3618,
      "gian": 3619,
      "_chur": 3620,
      "ounds": 3621,
      "_effic": 3622,
      "_nether": 3623,
      "racy": 3624,
      "isters": 3625,
      "_quality": 3626,
      "_regional": 3627,
      "osis": 3628,
      "_oxford": 3629,
      "usal": 3630,
      "_anarch": 3631,
      "asy": 3632,
      "_difference": 3633,
      "_crown": 3634,
      "otic": 3635,
      "_ran": 3636,
      "_critics": 3637,
      "_completely": 3638,
      "_screen": 3639,
      "ias": 3640,
      "isp": 3641,
      "_jim": 3642,
      "_paral": 3643,
      "_fourth": 3644,
      "_usage": 3645,
      "_standards": 3646,
      "_executive": 3647,
      "_behavior": 3648,
      "head": 3649,
      "ody": 3650,
      "elled": 3651,
      "_sand": 3652,
      "_gives": 3653,
      "_edward": 3654,
      "_else": 3655,
      "_martin": 3656,
      "_tas": 3657,
      "_fans": 3658,
      "_pair": 3659,
      "_ships": 3660,
      "fficient": 3661,
      "_phenomen": 3662,
      "_churches": 3663,
      "har": 3664,
      "rane": 3665,
      "cious": 3666,
      "_dun": 3667,
      "_kong": 3668,
      "_models": 3669,
      "_turned": 3670,
      "_greece": 3671,
      "_initial": 3672,
      "_justice": 3673,
      "rm": 3674,
      "mann": 3675,
      "_becoming": 3676,
      "_hours": 3677,
      "_fundamental": 3678,
      "_guard": 3679,
      "_ded": 3680,
      "_negative": 3681,
      "_horse": 3682,
      "_favor": 3683,
      "_nap": 3684,
      "_technical": 3685,
      "_mountain": 3686,
      "_mos": 3687,
      "_contact": 3688,
      "_netherlands": 3689,
      "_domest": 3690,
      "_folk": 3691,
      "_enter": 3692,
      "_streng": 3693,
      "ped": 3694,
      "_useful": 3695,
      "_string": 3696,
      "_electronic": 3697,
      "_quarter": 3698,
      "_reasons": 3699,
      "_linear": 3700,
      "_honor": 3701,
      "_fest": 3702,
      "_moving": 3703,
      "_poland": 3704,
      "_gard": 3705,
      "_rough": 3706,
      "_inside": 3707,
      "_compil": 3708,
      "_planet": 3709,
      "_impact": 3710,
      "_slight": 3711,
      "_perman": 3712,
      "_going": 3713,
      "_featured": 3714,
      "_encyclopedia": 3715,
      "_unf": 3716,
      "_episode": 3717,
      "azz": 3718,
      "_carried": 3719,
      "oo": 3720,
      "_link": 3721,
      "_palest": 3722,
      "_occasion": 3723,
      "_responsible": 3724,
      "_advant": 3725,
      "_protection": 3726,
      "_exchange": 3727,
      "log": 3728,
      "_purch": 3729,
      "_suc": 3730,
      "_spoken": 3731,
      "_beat": 3732,
      "_wing": 3733,
      "_describe": 3734,
      "gal": 3735,
      "_gh": 3736,
      "ieties": 3737,
      "_activities": 3738,
      "_spring": 3739,
      "_upper": 3740,
      "_christians": 3741,
      "_reve": 3742,
      "_cambridge": 3743,
      "_ones": 3744,
      "_dro": 3745,
      "_incorpor": 3746,
      "bour": 3747,
      "_ott": 3748,
      "_mom": 3749,
      "_ku": 3750,
      "_equip": 3751,
      "erve": 3752,
      "_dang": 3753,
      "ests": 3754,
      "ml": 3755,
      "_continue": 3756,
      "_failed": 3757,
      "_arthur": 3758,
      "bi": 3759,
      "_weight": 3760,
      "_application": 3761,
      "_families": 3762,
      "_fields": 3763,
      "sec": 3764,
      "_winter": 3765,
      "_alphabet": 3766,
      "_indeed": 3767,
      "what": 3768,
      "rich": 3769,
      "_emphas": 3770,
      "_biography": 3771,
      "_dynast": 3772,
      "_views": 3773,
      "_somewhat": 3774,
      "_goal": 3775,
      "_follows": 3776,
      "_decision": 3777,
      "nes": 3778,
      "_competition": 3779,
      "_urban": 3780,
      "_seems": 3781,
      "hesis": 3782,
      "_opposed": 3783,
      "_possibly": 3784,
      "_resulting": 3785,
      "_juda": 3786,
      "_islamic": 3787,
      "_swe": 3788,
      "_format": 3789,
      "_oppos": 3790,
      "_scottish": 3791,
      "_doctor": 3792,
      "mitted": 3793,
      "_supreme": 3794,
      "_nic": 3795,
      "_stone": 3796,
      "ulations": 3797,
      "iah": 3798,
      "_signal": 3799,
      "_voice": 3800,
      "_dna": 3801,
      "rate": 3802,
      "_arabic": 3803,
      "lines": 3804,
      "aving": 3805,
      "_phr": 3806,
      "_generation": 3807,
      "ographic": 3808,
      "_theat": 3809,
      "_bell": 3810,
      "west": 3811,
      "_decided": 3812,
      "ram": 3813,
      "_composed": 3814,
      "_represented": 3815,
      "_appearance": 3816,
      "_starting": 3817,
      "_causes": 3818,
      "encies": 3819,
      "_rd": 3820,
      "_charge": 3821,
      "_weapons": 3822,
      "_tell": 3823,
      "_doll": 3824,
      "_geography": 3825,
      "_attempts": 3826,
      "_growing": 3827,
      "_principle": 3828,
      "_plants": 3829,
      "_golden": 3830,
      "_vary": 3831,
      "_ended": 3832,
      "reed": 3833,
      "imal": 3834,
      "_kenn": 3835,
      "_pure": 3836,
      "aph": 3837,
      "_alf": 3838,
      "_austria": 3839,
      "_got": 3840,
      "_terror": 3841,
      "_pick": 3842,
      "ils": 3843,
      "_positive": 3844,
      "_giving": 3845,
      "_alt": 3846,
      "_chall": 3847,
      "eds": 3848,
      "ressed": 3849,
      "_succeed": 3850,
      "_declared": 3851,
      "_fish": 3852,
      "_und": 3853,
      "writ": 3854,
      "za": 3855,
      "_oly": 3856,
      "_fuel": 3857,
      "_training": 3858,
      "_adj": 3859,
      "_capac": 3860,
      "_expans": 3861,
      "_grav": 3862,
      "_equipment": 3863,
      "oper": 3864,
      "lom": 3865,
      "erc": 3866,
      "vert": 3867,
      "_cham": 3868,
      "_compared": 3869,
      "_marx": 3870,
      "_income": 3871,
      "ati": 3872,
      "_mm": 3873,
      "_artist": 3874,
      "_lincol": 3875,
      "_lincoln": 3876,
      "_ak": 3877,
      "_reaction": 3878,
      "_olymp": 3879,
      "_improve": 3880,
      "_unkn": 3881,
      "vey": 3882,
      "_ring": 3883,
      "_flo": 3884,
      "sp": 3885,
      "_pier": 3886,
      "_comic": 3887,
      "_drive": 3888,
      "_tou": 3889,
      "_mr": 3890,
      "_advoc": 3891,
      "_academy": 3892,
      "_architecture": 3893,
      "pg": 3894,
      "rees": 3895,
      "_armed": 3896,
      "_motor": 3897,
      "_zeal": 3898,
      "_reign": 3899,
      "_ford": 3900,
      "rier": 3901,
      "_discip": 3902,
      "_argued": 3903,
      "_imag": 3904,
      "book": 3905,
      "_occurs": 3906,
      "_attacks": 3907,
      "_valley": 3908,
      "_classic": 3909,
      "_extended": 3910,
      "my": 3911,
      "izes": 3912,
      "_finland": 3913,
      "_directed": 3914,
      "_easily": 3915,
      "_perfect": 3916,
      "_glass": 3917,
      "nel": 3918,
      "_presence": 3919,
      "_truth": 3920,
      "_belong": 3921,
      "_traditionally": 3922,
      "_identity": 3923,
      "_equivalent": 3924,
      "_exists": 3925,
      "_nothing": 3926,
      "agan": 3927,
      "era": 3928,
      "ador": 3929,
      "_differences": 3930,
      "_organizations": 3931,
      "_illust": 3932,
      "gment": 3933,
      "met": 3934,
      "_enj": 3935,
      "_mentioned": 3936,
      "_solution": 3937,
      "_cp": 3938,
      "ordin": 3939,
      "_immediately": 3940,
      "_stan": 3941,
      "_efforts": 3942,
      "_apart": 3943,
      "_simpl": 3944,
      "_extensive": 3945,
      "_provin": 3946,
      "_encoura": 3947,
      "_alone": 3948,
      "_chance": 3949,
      "_apol": 3950,
      "_communities": 3951,
      "ex": 3952,
      "och": 3953,
      "_copyr": 3954,
      "_poll": 3955,
      "_championship": 3956,
      "aded": 3957,
      "inet": 3958,
      "_achieve": 3959,
      "_leban": 3960,
      "_background": 3961,
      "_announced": 3962,
      "_geomet": 3963,
      "_proved": 3964,
      "_combined": 3965,
      "_understanding": 3966,
      "_nick": 3967,
      "icip": 3968,
      "_serve": 3969,
      "_cla": 3970,
      "_paralle": 3971,
      "anta": 3972,
      "_debate": 3973,
      "_cards": 3974,
      "_choice": 3975,
      "_neut": 3976,
      "usalem": 3977,
      "_technique": 3978,
      "_controlled": 3979,
      "_device": 3980,
      "_environmental": 3981,
      "_batt": 3982,
      "_composition": 3983,
      "ava": 3984,
      "_assass": 3985,
      "_initially": 3986,
      "_jerusalem": 3987,
      "_fit": 3988,
      "_student": 3989,
      "_musician": 3990,
      "_hus": 3991,
      "_unc": 3992,
      "iform": 3993,
      "_fict": 3994,
      "_feet": 3995,
      "iar": 3996,
      "_allowing": 3997,
      "_molec": 3998,
      "_meant": 3999,
      "_situation": 4000,
      "_secretary": 4001,
      "_mont": 4002,
      "_connected": 4003,
      "_fully": 4004,
      "_teams": 4005,
      "_expected": 4006,
      "claim": 4007,
      "_sport": 4008,
      "_materials": 4009,
      "_az": 4010,
      "_barb": 4011,
      "_carl": 4012,
      "_ruled": 4013,
      "aven": 4014,
      "_han": 4015,
      "_conv": 4016,
      "ulate": 4017,
      "_prep": 4018,
      "_algorithm": 4019,
      "_convers": 4020,
      "_combat": 4021,
      "_bishop": 4022,
      "_mob": 4023,
      "_temple": 4024,
      "_victory": 4025,
      "_turk": 4026,
      "_judaism": 4027,
      "_unknown": 4028,
      "ns": 4029,
      "_actions": 4030,
      "_gib": 4031,
      "_writings": 4032,
      "_hin": 4033,
      "teen": 4034,
      "_oh": 4035,
      "_holid": 4036,
      "kes": 4037,
      "_output": 4038,
      "_classes": 4039,
      "_frame": 4040,
      "_hug": 4041,
      "_entirely": 4042,
      "_ath": 4043,
      "_gained": 4044,
      "_seat": 4045,
      "_jun": 4046,
      "_eg": 4047,
      "_stor": 4048,
      "_jacks": 4049,
      "_domestic": 4050,
      "_containing": 4051,
      "_earliest": 4052,
      "_otherwise": 4053,
      "_effective": 4054,
      "_intellect": 4055,
      "lection": 4056,
      "_ht": 4057,
      "_gosp": 4058,
      "ensity": 4059,
      "_workers": 4060,
      "_literary": 4061,
      "iro": 4062,
      "_cod": 4063,
      "anda": 4064,
      "_limit": 4065,
      "_mathematic": 4066,
      "wan": 4067,
      "_wealth": 4068,
      "_americans": 4069,
      "_principles": 4070,
      "_recognized": 4071,
      "gra": 4072,
      "_bon": 4073,
      "_mere": 4074,
      "_exclus": 4075,
      "_prin": 4076,
      "_artists": 4077,
      "_unp": 4078,
      "_atm": 4079,
      "_liqu": 4080,
      "_sax": 4081,
      "_replace": 4082,
      "_aid": 4083,
      "_sites": 4084,
      "ologists": 4085,
      "_esc": 4086,
      "_scientists": 4087,
      "_entry": 4088,
      "_curren": 4089,
      "_controversy": 4090,
      "_apollo": 4091,
      "ubb": 4092,
      "_dictionary": 4093,
      "_hong": 4094,
      "_confeder": 4095,
      "_trial": 4096,
      "vi": 4097,
      "_fru": 4098,
      "_pc": 4099,
      "_asc": 4100,
      "_vel": 4101,
      "_harv": 4102,
      "_suggested": 4103,
      "_dynasty": 4104,
      "_says": 4105,
      "actions": 4106,
      "nam": 4107,
      "_dram": 4108,
      "_statement": 4109,
      "_bush": 4110,
      "_attract": 4111,
      "_domain": 4112,
      "_argent": 4113,
      "_reduced": 4114,
      "_arms": 4115,
      "_wikip": 4116,
      "_prominent": 4117,
      "_specifically": 4118,
      "_conference": 4119,
      "_attention": 4120,
      "_completed": 4121,
      "rim": 4122,
      "_solid": 4123,
      "_cu": 4124,
      "_pu": 4125,
      "cape": 4126,
      "_cha": 4127,
      "_flat": 4128,
      "_discussion": 4129,
      "_copyright": 4130,
      "_elev": 4131,
      "_swit": 4132,
      "mun": 4133,
      "igan": 4134,
      "igration": 4135,
      "_cond": 4136,
      "_requires": 4137,
      "_figures": 4138,
      "wide": 4139,
      "_avoid": 4140,
      "_lithu": 4141,
      "_expansion": 4142,
      "_bah": 4143,
      "inger": 4144,
      "_cycle": 4145,
      "_atlantic": 4146,
      "_stations": 4147,
      "_disk": 4148,
      "_drum": 4149,
      "_fill": 4150,
      "_qual": 4151,
      "_opin": 4152,
      "_typical": 4153,
      "ule": 4154,
      "_structures": 4155,
      "_texts": 4156,
      "_sort": 4157,
      "_adult": 4158,
      "_jackson": 4159,
      "ih": 4160,
      "_chrom": 4161,
      "_scene": 4162,
      "_afghanistan": 4163,
      "_wid": 4164,
      "_ly": 4165,
      "_criticism": 4166,
      "ieval": 4167,
      "_price": 4168,
      "_medieval": 4169,
      "_increasingly": 4170,
      "_daily": 4171,
      "_hydrogen": 4172,
      "more": 4173,
      "itable": 4174,
      "_invasion": 4175,
      "_audio": 4176,
      "_texas": 4177,
      "_nom": 4178,
      "unt": 4179,
      "_republican": 4180,
      "_anthrop": 4181,
      "_destroyed": 4182,
      "_georg": 4183,
      "_severe": 4184,
      "_marked": 4185,
      "light": 4186,
      "war": 4187,
      "_bott": 4188,
      "_israeli": 4189,
      "_wave": 4190,
      "icate": 4191,
      "_lives": 4192,
      "_cooper": 4193,
      "_begins": 4194,
      "_gdp": 4195,
      "_images": 4196,
      "_alcohol": 4197,
      "_split": 4198,
      "_closely": 4199,
      "_penn": 4200,
      "_anne": 4201,
      "_genetic": 4202,
      "_juris": 4203,
      "_las": 4204,
      "_interview": 4205,
      "_frequency": 4206,
      "iced": 4207,
      "_inspired": 4208,
      "_din": 4209,
      "_toward": 4210,
      "ologist": 4211,
      "_mountains": 4212,
      "_datab": 4213,
      "_exc": 4214,
      "_closed": 4215,
      "ception": 4216,
      "_authors": 4217,
      "_analog": 4218,
      "_sequence": 4219,
      "_diplom": 4220,
      "_beaut": 4221,
      "_experiment": 4222,
      "_bern": 4223,
      "_senate": 4224,
      "_proced": 4225,
      "andon": 4226,
      "_occurred": 4227,
      "ogen": 4228,
      "_officially": 4229,
      "_hence": 4230,
      "ione": 4231,
      "_depending": 4232,
      "_kept": 4233,
      "_popularity": 4234,
      "_determined": 4235,
      "_corporation": 4236,
      "_wikipedia": 4237,
      "urt": 4238,
      "_weak": 4239,
      "antial": 4240,
      "_boston": 4241,
      "_helped": 4242,
      "_ages": 4243,
      "_concert": 4244,
      "_damage": 4245,
      "_ft": 4246,
      "_crus": 4247,
      "_slightly": 4248,
      "_ka": 4249,
      "_flor": 4250,
      "_attempted": 4251,
      "ala": 4252,
      "abor": 4253,
      "_portugues": 4254,
      "_fu": 4255,
      "iders": 4256,
      "_lear": 4257,
      "_satell": 4258,
      "_hungary": 4259,
      "_removed": 4260,
      "_discovery": 4261,
      "_runs": 4262,
      "_zealand": 4263,
      "_pp": 4264,
      "_entered": 4265,
      "_gods": 4266,
      "_absol": 4267,
      "_sweden": 4268,
      "_description": 4269,
      "_jones": 4270,
      "umin": 4271,
      "_plays": 4272,
      "box": 4273,
      "_twenty": 4274,
      "_fixed": 4275,
      "atically": 4276,
      "orter": 4277,
      "ested": 4278,
      "_moral": 4279,
      "_portuguese": 4280,
      "onym": 4281,
      "_zone": 4282,
      "_diamond": 4283,
      "_jazz": 4284,
      "_importance": 4285,
      "_presidential": 4286,
      "_novels": 4287,
      "_cant": 4288,
      "_laure": 4289,
      "ansas": 4290,
      "_territories": 4291,
      "_cryst": 4292,
      "_shall": 4293,
      "_buildings": 4294,
      "gs": 4295,
      "ano": 4296,
      "ounder": 4297,
      "_purs": 4298,
      "_physic": 4299,
      "_cosm": 4300,
      "_connection": 4301,
      "_ts": 4302,
      "_bol": 4303,
      "_lut": 4304,
      "_staff": 4305,
      "active": 4306,
      "zech": 4307,
      "_dynam": 4308,
      "works": 4309,
      "inn": 4310,
      "igen": 4311,
      "_kl": 4312,
      "_formation": 4313,
      "arc": 4314,
      "_winning": 4315,
      "_judge": 4316,
      "ening": 4317,
      "_comics": 4318,
      "_understand": 4319,
      "_buddh": 4320,
      "imb": 4321,
      "_cool": 4322,
      "_alexand": 4323,
      "_instruments": 4324,
      "_agriculture": 4325,
      "_conscious": 4326,
      "_factor": 4327,
      "_devices": 4328,
      "_governments": 4329,
      "_existing": 4330,
      "_dimens": 4331,
      "_estimated": 4332,
      "hal": 4333,
      "_goth": 4334,
      "_evil": 4335,
      "_controversial": 4336,
      "_agreed": 4337,
      "_offered": 4338,
      "_none": 4339,
      "_resulted": 4340,
      "_argue": 4341,
      "erved": 4342,
      "_origins": 4343,
      "_christmas": 4344,
      "_traditions": 4345,
      "ella": 4346,
      "cules": 4347,
      "_theorem": 4348,
      "_fictional": 4349,
      "don": 4350,
      "_testament": 4351,
      "_spiritual": 4352,
      "_cars": 4353,
      "aging": 4354,
      "ropri": 4355,
      "_asked": 4356,
      "rence": 4357,
      "_factors": 4358,
      "_czech": 4359,
      "onian": 4360,
      "_combination": 4361,
      "_ancest": 4362,
      "_mexico": 4363,
      "rig": 4364,
      "_withd": 4365,
      "_room": 4366,
      "_communications": 4367,
      "_caes": 4368,
      "_thousands": 4369,
      "ancy": 4370,
      "_schem": 4371,
      "_explos": 4372,
      "_topics": 4373,
      "_affairs": 4374,
      "_lee": 4375,
      "_ol": 4376,
      "_lun": 4377,
      "_ger": 4378,
      "_stal": 4379,
      "orders": 4380,
      "_phase": 4381,
      "_heavily": 4382,
      "via": 4383,
      "_bact": 4384,
      "omorph": 4385,
      "iana": 4386,
      "_desert": 4387,
      "_defeated": 4388,
      "_pak": 4389,
      "_permanent": 4390,
      "soft": 4391,
      "_abst": 4392,
      "_communication": 4393,
      "_ash": 4394,
      "_towns": 4395,
      "_constitutional": 4396,
      "iny": 4397,
      "_protocol": 4398,
      "_holds": 4399,
      "_pronounced": 4400,
      "_false": 4401,
      "vant": 4402,
      "vere": 4403,
      "_leaving": 4404,
      "_brand": 4405,
      "_austrian": 4406,
      "_annual": 4407,
      "_protestant": 4408,
      "_heaven": 4409,
      "_fighting": 4410,
      "rix": 4411,
      "_manif": 4412,
      "_recip": 4413,
      "_violence": 4414,
      "oud": 4415,
      "_stay": 4416,
      "_viet": 4417,
      "_actors": 4418,
      "_iran": 4419,
      "_tribes": 4420,
      "_maintain": 4421,
      "_indo": 4422,
      "_identified": 4423,
      "_lists": 4424,
      "_arist": 4425,
      "_crime": 4426,
      "_leadership": 4427,
      "_told": 4428,
      "_canon": 4429,
      "_politician": 4430,
      "_drink": 4431,
      "_crypt": 4432,
      "_moment": 4433,
      "hamm": 4434,
      "_crick": 4435,
      "_pray": 4436,
      "aming": 4437,
      "_hyper": 4438,
      "_democracy": 4439,
      "_hypot": 4440,
      "_subsequent": 4441,
      "_enjoy": 4442,
      "hi": 4443,
      "_chos": 4444,
      "_quantum": 4445,
      "_aspects": 4446,
      "_forward": 4447,
      "_chair": 4448,
      "_movies": 4449,
      "ault": 4450,
      "arm": 4451,
      "_normally": 4452,
      "_ram": 4453,
      "_abandon": 4454,
      "_mail": 4455,
      "_census": 4456,
      "_thing": 4457,
      "_situ": 4458,
      "_soldiers": 4459,
      "acher": 4460,
      "_concepts": 4461,
      "_input": 4462,
      "ado": 4463,
      "_risk": 4464,
      "roll": 4465,
      "_angeles": 4466,
      "_pages": 4467,
      "eland": 4468,
      "_columbia": 4469,
      "_spent": 4470,
      "_institutions": 4471,
      "rugg": 4472,
      "iber": 4473,
      "_parad": 4474,
      "_extin": 4475,
      "_effort": 4476,
      "_doctrine": 4477,
      "ato": 4478,
      "ctors": 4479,
      "_reality": 4480,
      "_veget": 4481,
      "_involve": 4482,
      "_strip": 4483,
      "_beliefs": 4484,
      "_fame": 4485,
      "_goes": 4486,
      "_reports": 4487,
      "_ibm": 4488,
      "_intellectual": 4489,
      "_formula": 4490,
      "_statistics": 4491,
      "_category": 4492,
      "_proof": 4493,
      "_shap": 4494,
      "_sacr": 4495,
      "las": 4496,
      "_ari": 4497,
      "_tried": 4498,
      "_goods": 4499,
      "_questions": 4500,
      "_defeat": 4501,
      "_atmosp": 4502,
      "_manner": 4503,
      "_infant": 4504,
      "_decades": 4505,
      "_sides": 4506,
      "_dry": 4507,
      "_fantasy": 4508,
      "_forum": 4509,
      "_owners": 4510,
      "_negot": 4511,
      "_microsoft": 4512,
      "_details": 4513,
      "_supply": 4514,
      "_strugg": 4515,
      "_presented": 4516,
      "_meeting": 4517,
      "_nazi": 4518,
      "_match": 4519,
      "_message": 4520,
      "_learning": 4521,
      "_vac": 4522,
      "_arc": 4523,
      "_leave": 4524,
      "_eliz": 4525,
      "_expressed": 4526,
      "quar": 4527,
      "_movements": 4528,
      "_advantage": 4529,
      "_fash": 4530,
      "_positions": 4531,
      "_spect": 4532,
      "inated": 4533,
      "heast": 4534,
      "_wanted": 4535,
      "_linux": 4536,
      "_chapter": 4537,
      "_semi": 4538,
      "_expression": 4539,
      "_professor": 4540,
      "uts": 4541,
      "_lew": 4542,
      "_killing": 4543,
      "_creating": 4544,
      "band": 4545,
      "_bear": 4546,
      "_editor": 4547,
      "zy": 4548,
      "_vice": 4549,
      "_subsequently": 4550,
      "_bw": 4551,
      "_hay": 4552,
      "char": 4553,
      "_sky": 4554,
      "_receive": 4555,
      "_eye": 4556,
      "_reach": 4557,
      "_extent": 4558,
      "_continues": 4559,
      "_grew": 4560,
      "ety": 4561,
      "_plot": 4562,
      "_crew": 4563,
      "kins": 4564,
      "_founder": 4565,
      "_bang": 4566,
      "_clock": 4567,
      "_piece": 4568,
      "iations": 4569,
      "_proceed": 4570,
      "_historians": 4571,
      "_opened": 4572,
      "_machines": 4573,
      "_bil": 4574,
      "_archae": 4575,
      "_dv": 4576,
      "_currency": 4577,
      "ique": 4578,
      "bury": 4579,
      "_bos": 4580,
      "_bru": 4581,
      "_want": 4582,
      "orters": 4583,
      "_vast": 4584,
      "_clar": 4585,
      "_raised": 4586,
      "_parents": 4587,
      "_opening": 4588,
      "_analy": 4589,
      "_policies": 4590,
      "_roughly": 4591,
      "_absolute": 4592,
      "isf": 4593,
      "_mcc": 4594,
      "unc": 4595,
      "_sty": 4596,
      "_considerable": 4597,
      "_picture": 4598,
      "_interpretation": 4599,
      "_inhabit": 4600,
      "_ray": 4601,
      "_confir": 4602,
      "_cultures": 4603,
      "_pakistan": 4604,
      "_commod": 4605,
      "osexual": 4606,
      "_steel": 4607,
      "_chronic": 4608,
      "ees": 4609,
      "_divine": 4610,
      "uses": 4611,
      "_translated": 4612,
      "_astronom": 4613,
      "zo": 4614,
      "_persian": 4615,
      "_parallel": 4616,
      "iary": 4617,
      "inton": 4618,
      "_bodies": 4619,
      "_sle": 4620,
      "ishes": 4621,
      "oren": 4622,
      "_tower": 4623,
      "_chosen": 4624,
      "ping": 4625,
      "_pros": 4626,
      "ession": 4627,
      "_greatly": 4628,
      "_teleph": 4629,
      "_femin": 4630,
      "_atoms": 4631,
      "_shortly": 4632,
      "_failure": 4633,
      "_fasc": 4634,
      "_noun": 4635,
      "_processes": 4636,
      "_farm": 4637,
      "_captain": 4638,
      "_alleged": 4639,
      "itan": 4640,
      "_len": 4641,
      "_gain": 4642,
      "_indones": 4643,
      "_sab": 4644,
      "_cine": 4645,
      "_core": 4646,
      "_sud": 4647,
      "_finn": 4648,
      "_courts": 4649,
      "_characteristics": 4650,
      "_cow": 4651,
      "_fried": 4652,
      "_bron": 4653,
      "_electro": 4654,
      "_equation": 4655,
      "_babyl": 4656,
      "ev": 4657,
      "_suff": 4658,
      "_adapt": 4659,
      "ologies": 4660,
      "_philosophical": 4661,
      "_administrative": 4662,
      "_darwin": 4663,
      "_server": 4664,
      "_homosexual": 4665,
      "_symbols": 4666,
      "_shape": 4667,
      "_tan": 4668,
      "_proport": 4669,
      "ocks": 4670,
      "_mythology": 4671,
      "_kilomet": 4672,
      "icial": 4673,
      "_organized": 4674,
      "_formerly": 4675,
      "_hardware": 4676,
      "_observed": 4677,
      "_respectively": 4678,
      "_korea": 4679,
      "ograp": 4680,
      "_apost": 4681,
      "_peoples": 4682,
      "_regarding": 4683,
      "car": 4684,
      "_nas": 4685,
      "_battles": 4686,
      "_mort": 4687,
      "icks": 4688,
      "_elim": 4689,
      "_swedish": 4690,
      "house": 4691,
      "_chain": 4692,
      "_ion": 4693,
      "inity": 4694,
      "_jpg": 4695,
      "_plate": 4696,
      "_economics": 4697,
      "_philosopher": 4698,
      "iring": 4699,
      "_trad": 4700,
      "_representation": 4701,
      "_fashion": 4702,
      "_fro": 4703,
      "lem": 4704,
      "_blues": 4705,
      "greg": 4706,
      "oral": 4707,
      "_dj": 4708,
      "ube": 4709,
      "_strict": 4710,
      "_worship": 4711,
      "_deriv": 4712,
      "_neither": 4713,
      "_ordered": 4714,
      "_practical": 4715,
      "_wales": 4716,
      "itzer": 4717,
      "_resistance": 4718,
      "_orbit": 4719,
      "_studied": 4720,
      "fully": 4721,
      "_harmon": 4722,
      "_rivers": 4723,
      "_straight": 4724,
      "_tenn": 4725,
      "rey": 4726,
      "_cris": 4727,
      "_chemistry": 4728,
      "stream": 4729,
      "oty": 4730,
      "_exhib": 4731,
      "_susp": 4732,
      "_eld": 4733,
      "cts": 4734,
      "abeth": 4735,
      "_covered": 4736,
      "_enemy": 4737,
      "_rod": 4738,
      "_concer": 4739,
      "_needs": 4740,
      "_pieces": 4741,
      "_anton": 4742,
      "_ein": 4743,
      "lywood": 4744,
      "cont": 4745,
      "_revolutionary": 4746,
      "_speakers": 4747,
      "_electrical": 4748,
      "_asian": 4749,
      "_accur": 4750,
      "_principal": 4751,
      "_criminal": 4752,
      "_rum": 4753,
      "_settlement": 4754,
      "_mist": 4755,
      "_andrew": 4756,
      "_stad": 4757,
      "_whereas": 4758,
      "anning": 4759,
      "_naval": 4760,
      "_feat": 4761,
      "_narrow": 4762,
      "_doug": 4763,
      "ceived": 4764,
      "agn": 4765,
      "_newton": 4766,
      "_patri": 4767,
      "_projects": 4768,
      "ompan": 4769,
      "ras": 4770,
      "_cm": 4771,
      "_johnson": 4772,
      "_isa": 4773,
      "_ken": 4774,
      "sey": 4775,
      "_bwv": 4776,
      "_sail": 4777,
      "_phon": 4778,
      "_kg": 4779,
      "_leon": 4780,
      "_files": 4781,
      "_supposed": 4782,
      "ket": 4783,
      "_accompan": 4784,
      "_harm": 4785,
      "_mir": 4786,
      "ifying": 4787,
      "_compr": 4788,
      "_radical": 4789,
      "_transportation": 4790,
      "_binary": 4791,
      "_reven": 4792,
      "_sufficient": 4793,
      "_carol": 4794,
      "oured": 4795,
      "_owned": 4796,
      "_mode": 4797,
      "_storage": 4798,
      "_gospel": 4799,
      "_jurisd": 4800,
      "_minutes": 4801,
      "_database": 4802,
      "_cou": 4803,
      "_wides": 4804,
      "_sovere": 4805,
      "_repeated": 4806,
      "_sovereign": 4807,
      "akh": 4808,
      "_anything": 4809,
      "_railway": 4810,
      "_occasionally": 4811,
      "_hosp": 4812,
      "_interpre": 4813,
      "_celtic": 4814,
      "_ille": 4815,
      "gu": 4816,
      "_purposes": 4817,
      "_describes": 4818,
      "uous": 4819,
      "itarian": 4820,
      "_persons": 4821,
      "_myster": 4822,
      "rel": 4823,
      "_dict": 4824,
      "_rates": 4825,
      "_coming": 4826,
      "thy": 4827,
      "ellow": 4828,
      "_artific": 4829,
      "_easy": 4830,
      "_degrees": 4831,
      "_academic": 4832,
      "_sister": 4833,
      "_termin": 4834,
      "_awarded": 4835,
      "yan": 4836,
      "utation": 4837,
      "add": 4838,
      "_genes": 4839,
      "_processing": 4840,
      "_salv": 4841,
      "_occupied": 4842,
      "_influential": 4843,
      "tery": 4844,
      "_plane": 4845,
      "_defend": 4846,
      "_solar": 4847,
      "_drugs": 4848,
      "isher": 4849,
      "_nfl": 4850,
      "_unus": 4851,
      "_scand": 4852,
      "_freder": 4853,
      "_infinite": 4854,
      "_athe": 4855,
      "_michigan": 4856,
      "_newspaper": 4857,
      "_ll": 4858,
      "_gay": 4859,
      "_commonwe": 4860,
      "_awards": 4861,
      "_jon": 4862,
      "_relation": 4863,
      "_ends": 4864,
      "_detect": 4865,
      "_dialects": 4866,
      "ading": 4867,
      "_transition": 4868,
      "_houses": 4869,
      "_commonwealth": 4870,
      "_someone": 4871,
      "_publication": 4872,
      "_explan": 4873,
      "_saying": 4874,
      "_orders": 4875,
      "_mixed": 4876,
      "_commander": 4877,
      "_coordin": 4878,
      "_refused": 4879,
      "ims": 4880,
      "_kent": 4881,
      "_conson": 4882,
      "_similarly": 4883,
      "_random": 4884,
      "ami": 4885,
      "_granted": 4886,
      "_install": 4887,
      "_isol": 4888,
      "_arrest": 4889,
      "_plans": 4890,
      "_fear": 4891,
      "_joint": 4892,
      "_descend": 4893,
      "_weeks": 4894,
      "_index": 4895,
      "_launched": 4896,
      "_village": 4897,
      "agon": 4898,
      "_teaching": 4899,
      "_guine": 4900,
      "_festival": 4901,
      "_satellite": 4902,
      "_ie": 4903,
      "_hoc": 4904,
      "ache": 4905,
      "_danish": 4906,
      "iment": 4907,
      "_grant": 4908,
      "_circle": 4909,
      "_fleet": 4910,
      "_crow": 4911,
      "ogue": 4912,
      "_medium": 4913,
      "_felt": 4914,
      "_hindu": 4915,
      "_ah": 4916,
      "oring": 4917,
      "order": 4918,
      "_peak": 4919,
      "_achieved": 4920,
      "eless": 4921,
      "_rational": 4922,
      "_comedy": 4923,
      "_traffic": 4924,
      "_check": 4925,
      "_selected": 4926,
      "_challen": 4927,
      "_pian": 4928,
      "_strength": 4929,
      "zant": 4930,
      "ena": 4931,
      "_hat": 4932,
      "ota": 4933,
      "_rabb": 4934,
      "_appropri": 4935,
      "_classification": 4936,
      "_portra": 4937,
      "_ideal": 4938,
      "_fifth": 4939,
      "iop": 4940,
      "_column": 4941,
      "_joh": 4942,
      "_entertain": 4943,
      "_summ": 4944,
      "_colonial": 4945,
      "_brothers": 4946,
      "_cav": 4947,
      "_fine": 4948,
      "_chart": 4949,
      "_imposs": 4950,
      "_liquid": 4951,
      "_tel": 4952,
      "_dor": 4953,
      "_lot": 4954,
      "_particles": 4955,
      "_clearly": 4956,
      "_hur": 4957,
      "stone": 4958,
      "_hungarian": 4959,
      "_ow": 4960,
      "iga": 4961,
      "_byzant": 4962,
      "_safety": 4963,
      "rates": 4964,
      "_denmark": 4965,
      "_dispute": 4966,
      "_surrounding": 4967,
      "rete": 4968,
      "raction": 4969,
      "_contained": 4970,
      "pread": 4971,
      "enh": 4972,
      "_pi": 4973,
      "icism": 4974,
      "_diet": 4975,
      "_hair": 4976,
      "_strateg": 4977,
      "_determine": 4978,
      "icide": 4979,
      "_density": 4980,
      "_sevent": 4981,
      "_prohib": 4982,
      "_agricultural": 4983,
      "_widespread": 4984,
      "tes": 4985,
      "_sector": 4986,
      "_teach": 4987,
      "_label": 4988,
      "_affect": 4989,
      "_absor": 4990,
      "_deliver": 4991,
      "cers": 4992,
      "_pictures": 4993,
      "_enfor": 4994,
      "_opportun": 4995,
      "_snow": 4996,
      "_inhabitants": 4997,
      "gi": 4998,
      "_alliance": 4999,
      "_pruss": 5000,
      "_recomm": 5001,
      "_worldwide": 5002,
      "_kid": 5003,
      "_adam": 5004,
      "_crisis": 5005,
      "_seats": 5006,
      "_doing": 5007,
      "_producer": 5008,
      "_universities": 5009,
      "_providing": 5010,
      "_valid": 5011,
      "_issued": 5012,
      "_bed": 5013,
      "_huge": 5014,
      "_gulf": 5015,
      "eros": 5016,
      "uration": 5017,
      "_shared": 5018,
      "_root": 5019,
      "_ministers": 5020,
      "_showing": 5021,
      "iable": 5022,
      "_cable": 5023,
      "_exerc": 5024,
      "_fox": 5025,
      "_ultimately": 5026,
      "_apparently": 5027,
      "_sons": 5028,
      "aling": 5029,
      "_induct": 5030,
      "_distinction": 5031,
      "_hind": 5032,
      "_lyn": 5033,
      "_rub": 5034,
      "theless": 5035,
      "lers": 5036,
      "lete": 5037,
      "_plus": 5038,
      "_oxy": 5039,
      "_maximum": 5040,
      "_suffered": 5041,
      "_standing": 5042,
      "_nevertheless": 5043,
      "_daniel": 5044,
      "_therm": 5045,
      "_bac": 5046,
      "urally": 5047,
      "_bottom": 5048,
      "_genre": 5049,
      "_lies": 5050,
      "etics": 5051,
      "iants": 5052,
      "_transm": 5053,
      "_opposite": 5054,
      "vis": 5055,
      "_obl": 5056,
      "_secondary": 5057,
      "_angl": 5058,
      "_layer": 5059,
      "_slo": 5060,
      "_jord": 5061,
      "_chile": 5062,
      "_electricity": 5063,
      "_virginia": 5064,
      "_fres": 5065,
      "idden": 5066,
      "_advert": 5067,
      "_agency": 5068,
      "_feed": 5069,
      "_reduce": 5070,
      "_precise": 5071,
      "_municip": 5072,
      "ette": 5073,
      "_kir": 5074,
      "_kab": 5075,
      "_train": 5076,
      "_charl": 5077,
      "_advance": 5078,
      "_practices": 5079,
      "_visual": 5080,
      "_measures": 5081,
      "_ped": 5082,
      "acing": 5083,
      "_throne": 5084,
      "_computing": 5085,
      "_sword": 5086,
      "_sought": 5087,
      "_producing": 5088,
      "_trees": 5089,
      "_continuous": 5090,
      "uro": 5091,
      "rec": 5092,
      "_hour": 5093,
      "_linked": 5094,
      "_luther": 5095,
      "_elizabeth": 5096,
      "iat": 5097,
      "_supporters": 5098,
      "_setting": 5099,
      "_showed": 5100,
      "iti": 5101,
      "_yellow": 5102,
      "_oldest": 5103,
      "_unable": 5104,
      "_abol": 5105,
      "_taught": 5106,
      "_titles": 5107,
      "_exception": 5108,
      "_emerg": 5109,
      "_om": 5110,
      "_uss": 5111,
      "_synd": 5112,
      "_manufactur": 5113,
      "_legislative": 5114,
      "tion": 5115,
      "amin": 5116,
      "_pione": 5117,
      "_conclud": 5118,
      "_egyptian": 5119,
      "_detailed": 5120,
      "_rarely": 5121,
      "_phrase": 5122,
      "_mes": 5123,
      "_rein": 5124,
      "enses": 5125,
      "_respond": 5126,
      "_strongly": 5127,
      "_invented": 5128,
      "inth": 5129,
      "_store": 5130,
      "_uniform": 5131,
      "_silver": 5132,
      "_platform": 5133,
      "_engines": 5134,
      "_ending": 5135,
      "_declar": 5136,
      "_molecules": 5137,
      "_harvard": 5138,
      "_ale": 5139,
      "_calvin": 5140,
      "_alpha": 5141,
      "cription": 5142,
      "_scen": 5143,
      "_everything": 5144,
      "_hitler": 5145,
      "_lebanon": 5146,
      "_kaz": 5147,
      "ropol": 5148,
      "_represents": 5149,
      "_francisco": 5150,
      "_massive": 5151,
      "_documents": 5152,
      "_jacob": 5153,
      "_bes": 5154,
      "_dates": 5155,
      "_rose": 5156,
      "_sciences": 5157,
      "_godd": 5158,
      "_continental": 5159,
      "_civilization": 5160,
      "chest": 5161,
      "_arbit": 5162,
      "_job": 5163,
      "_constructed": 5164,
      "rain": 5165,
      "_planned": 5166,
      "_capable": 5167,
      "_understood": 5168,
      "_tact": 5169,
      "_bure": 5170,
      "_components": 5171,
      "_edge": 5172,
      "_recording": 5173,
      "_household": 5174,
      "inois": 5175,
      "_stephen": 5176,
      "_manager": 5177,
      "_biological": 5178,
      "_interesting": 5179,
      "_impossible": 5180,
      "_germ": 5181,
      "_multi": 5182,
      "_rejected": 5183,
      "_lewis": 5184,
      "bf": 5185,
      "kh": 5186,
      "sen": 5187,
      "_arrange": 5188,
      "_capacity": 5189,
      "_dream": 5190,
      "_suppl": 5191,
      "_revol": 5192,
      "_safe": 5193,
      "ements": 5194,
      "_involves": 5195,
      "_palace": 5196,
      "_croat": 5197,
      "_girl": 5198,
      "ek": 5199,
      "uing": 5200,
      "_sar": 5201,
      "_radiation": 5202,
      "_historically": 5203,
      "_guinea": 5204,
      "angel": 5205,
      "_liver": 5206,
      "_caesar": 5207,
      "_abd": 5208,
      "_belg": 5209,
      "_germanic": 5210,
      "_pd": 5211,
      "_orchest": 5212,
      "_theme": 5213,
      "_shell": 5214,
      "_depression": 5215,
      "_render": 5216,
      "rid": 5217,
      "_jr": 5218,
      "_clinton": 5219,
      "_abra": 5220,
      "_consp": 5221,
      "_circuit": 5222,
      "_hollywood": 5223,
      "_indicate": 5224,
      "_expanded": 5225,
      "_illinois": 5226,
      "_destruction": 5227,
      "_captured": 5228,
      "_license": 5229,
      "_atomic": 5230,
      "avia": 5231,
      "_accounts": 5232,
      "set": 5233,
      "iled": 5234,
      "_chamber": 5235,
      "_managed": 5236,
      "_marine": 5237,
      "_jeff": 5238,
      "_galax": 5239,
      "_poetry": 5240,
      "_rit": 5241,
      "_dism": 5242,
      "_colonies": 5243,
      "_permit": 5244,
      "wal": 5245,
      "unk": 5246,
      "_vector": 5247,
      "_penal": 5248,
      "_succeeded": 5249,
      "rations": 5250,
      "_ske": 5251,
      "_eug": 5252,
      "_twel": 5253,
      "_emot": 5254,
      "_cerem": 5255,
      "_oxygen": 5256,
      "rem": 5257,
      "_ches": 5258,
      "_bag": 5259,
      "_resolution": 5260,
      "_turkey": 5261,
      "_budget": 5262,
      "_wrong": 5263,
      "fc": 5264,
      "_hem": 5265,
      "_interface": 5266,
      "_decre": 5267,
      "_paid": 5268,
      "_logical": 5269,
      "_interests": 5270,
      "_neighbor": 5271,
      "_html": 5272,
      "_pul": 5273,
      "_nig": 5274,
      "_dc": 5275,
      "_networks": 5276,
      "_essentially": 5277,
      "_alfred": 5278,
      "_provinces": 5279,
      "_fly": 5280,
      "itled": 5281,
      "_indu": 5282,
      "_viewed": 5283,
      "_superior": 5284,
      "_institution": 5285,
      "_assumed": 5286,
      "_mental": 5287,
      "_societies": 5288,
      "_exactly": 5289,
      "cop": 5290,
      "road": 5291,
      "_ruth": 5292,
      "_prophe": 5293,
      "_castle": 5294,
      "_grammar": 5295,
      "_tools": 5296,
      "_iso": 5297,
      "_demand": 5298,
      "_authorities": 5299,
      "_muslims": 5300,
      "_route": 5301,
      "_admir": 5302,
      "ez": 5303,
      "_sla": 5304,
      "_fought": 5305,
      "ictions": 5306,
      "_youth": 5307,
      "_trust": 5308,
      "_dual": 5309,
      "_plain": 5310,
      "_publishing": 5311,
      "_soul": 5312,
      "_priest": 5313,
      "_visit": 5314,
      "_artificial": 5315,
      "_twelve": 5316,
      "ois": 5317,
      "dule": 5318,
      "_sole": 5319,
      "_biology": 5320,
      "_candidate": 5321,
      "_turkish": 5322,
      "_merely": 5323,
      "_bind": 5324,
      "_hamm": 5325,
      "oles": 5326,
      "_java": 5327,
      "_register": 5328,
      "_religions": 5329,
      "_cycl": 5330,
      "clusion": 5331,
      "_lady": 5332,
      "_johann": 5333,
      "uits": 5334,
      "_stran": 5335,
      "ante": 5336,
      "achus": 5337,
      "_auton": 5338,
      "_weapon": 5339,
      "ares": 5340,
      "_cia": 5341,
      "_param": 5342,
      "_developing": 5343,
      "_portion": 5344,
      "pan": 5345,
      "_settled": 5346,
      "_cogn": 5347,
      "_jers": 5348,
      "_obv": 5349,
      "_stalin": 5350,
      "ivers": 5351,
      "_tu": 5352,
      "_nit": 5353,
      "_explicit": 5354,
      "_ratio": 5355,
      "_theatre": 5356,
      "_eat": 5357,
      "_philip": 5358,
      "_champion": 5359,
      "icon": 5360,
      "_assert": 5361,
      "_gate": 5362,
      "_really": 5363,
      "etary": 5364,
      "_aw": 5365,
      "_horn": 5366,
      "_ali": 5367,
      "_preced": 5368,
      "_representatives": 5369,
      "_goddess": 5370,
      "_korean": 5371,
      "_witness": 5372,
      "_coalition": 5373,
      "_investment": 5374,
      "_obtained": 5375,
      "_cancer": 5376,
      "_philosophers": 5377,
      "_withdra": 5378,
      "_stadium": 5379,
      "_tall": 5380,
      "_trop": 5381,
      "_height": 5382,
      "_amaz": 5383,
      "_surpr": 5384,
      "_verb": 5385,
      "ja": 5386,
      "_bright": 5387,
      "_acting": 5388,
      "_carib": 5389,
      "_directory": 5390,
      "_cuba": 5391,
      "_florida": 5392,
      "come": 5393,
      "_pin": 5394,
      "_nomin": 5395,
      "_serb": 5396,
      "_membership": 5397,
      "_drawn": 5398,
      "_adams": 5399,
      "_innov": 5400,
      "_obvious": 5401,
      "time": 5402,
      "_sie": 5403,
      "_hu": 5404,
      "iful": 5405,
      "_historic": 5406,
      "_merc": 5407,
      "_significantly": 5408,
      "_maintained": 5409,
      "_ampl": 5410,
      "_cape": 5411,
      "aria": 5412,
      "_lect": 5413,
      "_socialist": 5414,
      "_improved": 5415,
      "ilbert": 5416,
      "_ark": 5417,
      "_finite": 5418,
      "_explo": 5419,
      "_rapidly": 5420,
      "_reprodu": 5421,
      "_strate": 5422,
      "_trig": 5423,
      "_merch": 5424,
      "_experien": 5425,
      "_occupation": 5426,
      "_eyes": 5427,
      "_causing": 5428,
      "_featuring": 5429,
      "_flying": 5430,
      "_react": 5431,
      "_twice": 5432,
      "_kick": 5433,
      "akers": 5434,
      "_blind": 5435,
      "_exports": 5436,
      "_dedicated": 5437,
      "_bom": 5438,
      "xide": 5439,
      "yst": 5440,
      "_cs": 5441,
      "_overall": 5442,
      "_defence": 5443,
      "pective": 5444,
      "teenth": 5445,
      "_listed": 5446,
      "_skin": 5447,
      "_strategy": 5448,
      "_si": 5449,
      "_semit": 5450,
      "anto": 5451,
      "_score": 5452,
      "_equations": 5453,
      "_opinion": 5454,
      "pa": 5455,
      "_tam": 5456,
      "_apply": 5457,
      "_minority": 5458,
      "_thousand": 5459,
      "_revealed": 5460,
      "_jordan": 5461,
      "rehens": 5462,
      "onso": 5463,
      "antly": 5464,
      "_ethiop": 5465,
      "_mechanics": 5466,
      "fall": 5467,
      "_stable": 5468,
      "uten": 5469,
      "_literally": 5470,
      "iency": 5471,
      "etts": 5472,
      "_romans": 5473,
      "_suggests": 5474,
      "_distributed": 5475,
      "_ss": 5476,
      "_bibl": 5477,
      "_napole": 5478,
      "_ae": 5479,
      "_maps": 5480,
      "_studio": 5481,
      "_propos": 5482,
      "_axi": 5483,
      "_efficient": 5484,
      "_mamm": 5485,
      "_kos": 5486,
      "_agent": 5487,
      "_define": 5488,
      "_visible": 5489,
      "_penins": 5490,
      "_employed": 5491,
      "_items": 5492,
      "_clus": 5493,
      "ographical": 5494,
      "_arrived": 5495,
      "_drop": 5496,
      "_lakes": 5497,
      "_accident": 5498,
      "_calls": 5499,
      "_extens": 5500,
      "_refuge": 5501,
      "_holding": 5502,
      "_roots": 5503,
      "_musicians": 5504,
      "_attributed": 5505,
      "_vietnam": 5506,
      "_magic": 5507,
      "_vision": 5508,
      "_gender": 5509,
      "_trou": 5510,
      "_sounds": 5511,
      "_throw": 5512,
      "_firm": 5513,
      "_colony": 5514,
      "_modified": 5515,
      "_fruit": 5516,
      "_coca": 5517,
      "_bands": 5518,
      "_satisf": 5519,
      "_storm": 5520,
      "_publications": 5521,
      "_subjects": 5522,
      "_talk": 5523,
      "right": 5524,
      "_kansas": 5525,
      "asts": 5526,
      "_reputation": 5527,
      "_dominated": 5528,
      "_contributed": 5529,
      "_concerning": 5530,
      "_jersey": 5531,
      "_sout": 5532,
      "_pse": 5533,
      "_lan": 5534,
      "_lyr": 5535,
      "_tai": 5536,
      "_looking": 5537,
      "hammad": 5538,
      "_som": 5539,
      "_fab": 5540,
      "_lind": 5541,
      "_alc": 5542,
      "_error": 5543,
      "aneous": 5544,
      "_younger": 5545,
      "_dominant": 5546,
      "_temperatures": 5547,
      "_necessarily": 5548,
      "_anat": 5549,
      "_lex": 5550,
      "appe": 5551,
      "_officer": 5552,
      "_epist": 5553,
      "_portugal": 5554,
      "claimed": 5555,
      "_beer": 5556,
      "_russell": 5557,
      "_massachus": 5558,
      "_hope": 5559,
      "_cabinet": 5560,
      "_foss": 5561,
      "_moore": 5562,
      "_kennedy": 5563,
      "yer": 5564,
      "_gor": 5565,
      "_selection": 5566,
      "_petro": 5567,
      "_protein": 5568,
      "_rebell": 5569,
      "_dies": 5570,
      "_row": 5571,
      "_ago": 5572,
      "_variations": 5573,
      "_pseud": 5574,
      "_massachusetts": 5575,
      "urb": 5576,
      "_partners": 5577,
      "_ministry": 5578,
      "_existed": 5579,
      "_psychology": 5580,
      "_abraham": 5581,
      "enger": 5582,
      "_rig": 5583,
      "ople": 5584,
      "_howard": 5585,
      "_effectively": 5586,
      "_recognition": 5587,
      "_samuel": 5588,
      "_hockey": 5589,
      "heim": 5590,
      "_bot": 5591,
      "_spin": 5592,
      "_periods": 5593,
      "_decline": 5594,
      "_indiana": 5595,
      "_strike": 5596,
      "down": 5597,
      "ho": 5598,
      "_bic": 5599,
      "_numer": 5600,
      "_extension": 5601,
      "_stands": 5602,
      "_saints": 5603,
      "ito": 5604,
      "_compounds": 5605,
      "_franklin": 5606,
      "oen": 5607,
      "_comed": 5608,
      "_circumst": 5609,
      "aska": 5610,
      "_brig": 5611,
      "_entitled": 5612,
      "_expensive": 5613,
      "_federation": 5614,
      "rapy": 5615,
      "_hawai": 5616,
      "_dangerous": 5617,
      "_georgia": 5618,
      "hard": 5619,
      "_inher": 5620,
      "ithms": 5621,
      "_compat": 5622,
      "_allied": 5623,
      "_remark": 5624,
      "_mainstream": 5625,
      "_clean": 5626,
      "_separated": 5627,
      "_encoun": 5628,
      "_mechanical": 5629,
      "_graphics": 5630,
      "town": 5631,
      "_bits": 5632,
      "_excess": 5633,
      "_coach": 5634,
      "_poem": 5635,
      "_choose": 5636,
      "_alleg": 5637,
      "_williams": 5638,
      "_audience": 5639,
      "_fert": 5640,
      "_asp": 5641,
      "_changing": 5642,
      "_males": 5643,
      "_ul": 5644,
      "ef": 5645,
      "_mouth": 5646,
      "_ron": 5647,
      "_horiz": 5648,
      "_belgium": 5649,
      "_metaph": 5650,
      "_shel": 5651,
      "_officials": 5652,
      "_affected": 5653,
      "_committed": 5654,
      "_virtual": 5655,
      "_neutral": 5656,
      "_aqu": 5657,
      "_reconst": 5658,
      "_attend": 5659,
      "_albums": 5660,
      "burgh": 5661,
      "_concerned": 5662,
      "_nickn": 5663,
      "ko": 5664,
      "_tig": 5665,
      "_heard": 5666,
      "_broken": 5667,
      "_matters": 5668,
      "_occas": 5669,
      "_sales": 5670,
      "_banks": 5671,
      "_trying": 5672,
      "_wed": 5673,
      "leg": 5674,
      "_het": 5675,
      "_designs": 5676,
      "_salt": 5677,
      "_husband": 5678,
      "_hors": 5679,
      "_relat": 5680,
      "_dvd": 5681,
      "_gent": 5682,
      "_upd": 5683,
      "_kit": 5684,
      "_birds": 5685,
      "crib": 5686,
      "rat": 5687,
      "_astro": 5688,
      "_treated": 5689,
      "eing": 5690,
      "oter": 5691,
      "_broke": 5692,
      "_opera": 5693,
      "_navig": 5694,
      "_executed": 5695,
      "_relationships": 5696,
      "_hundreds": 5697,
      "fare": 5698,
      "sd": 5699,
      "_ton": 5700,
      "_acce": 5701,
      "_appeal": 5702,
      "_draft": 5703,
      "_scholar": 5704,
      "_behavi": 5705,
      "_formally": 5706,
      "_knight": 5707,
      "_join": 5708,
      "_leads": 5709,
      "_request": 5710,
      "_nearby": 5711,
      "_costs": 5712,
      "_intelligent": 5713,
      "_ment": 5714,
      "ented": 5715,
      "_ric": 5716,
      "_vs": 5717,
      "_partly": 5718,
      "_anglo": 5719,
      "_legislation": 5720,
      "_biblical": 5721,
      "jo": 5722,
      "_wel": 5723,
      "bean": 5724,
      "_establishment": 5725,
      "iology": 5726,
      "_inner": 5727,
      "_lux": 5728,
      "_concentration": 5729,
      "_dol": 5730,
      "_rival": 5731,
      "_vic": 5732,
      "_evolved": 5733,
      "_signs": 5734,
      "_patterns": 5735,
      "_tool": 5736,
      "rose": 5737,
      "olar": 5738,
      "vak": 5739,
      "_codes": 5740,
      "_hip": 5741,
      "uting": 5742,
      "adel": 5743,
      "_uncle": 5744,
      "_prices": 5745,
      "ylv": 5746,
      "_educational": 5747,
      "arus": 5748,
      "_kal": 5749,
      "_loyal": 5750,
      "_remember": 5751,
      "_favour": 5752,
      "_answer": 5753,
      "_vehicles": 5754,
      "_acceler": 5755,
      "_bce": 5756,
      "rome": 5757,
      "_atari": 5758,
      "_metropol": 5759,
      "_historian": 5760,
      "_ethics": 5761,
      "_renamed": 5762,
      "iser": 5763,
      "oul": 5764,
      "_overse": 5765,
      "_involving": 5766,
      "_amounts": 5767,
      "ew": 5768,
      "water": 5769,
      "_vess": 5770,
      "_recon": 5771,
      "_donald": 5772,
      "_incorporated": 5773,
      "_unusual": 5774,
      "_distinguished": 5775,
      "_vehicle": 5776,
      "unciation": 5777,
      "_declaration": 5778,
      "ooth": 5779,
      "_tren": 5780,
      "_sed": 5781,
      "_thin": 5782,
      "_copy": 5783,
      "_painter": 5784,
      "_bibli": 5785,
      "ng": 5786,
      "_gab": 5787,
      "_parliamentary": 5788,
      "_ordinary": 5789,
      "_styles": 5790,
      "_wolf": 5791,
      "_serving": 5792,
      "_rulers": 5793,
      "_tourism": 5794,
      "_predomin": 5795,
      "_mathematician": 5796,
      "_atmosphere": 5797,
      "rus": 5798,
      "_wire": 5799,
      "_unless": 5800,
      "_leaves": 5801,
      "_underground": 5802,
      "_heads": 5803,
      "_paint": 5804,
      "_garden": 5805,
      "_tail": 5806,
      "ilton": 5807,
      "_prepar": 5808,
      "_err": 5809,
      "_officers": 5810,
      "_abbre": 5811,
      "_hospital": 5812,
      "agu": 5813,
      "_manus": 5814,
      "_particle": 5815,
      "_harry": 5816,
      "_supporting": 5817,
      "_balance": 5818,
      "_substance": 5819,
      "_episodes": 5820,
      "_consciousness": 5821,
      "_conj": 5822,
      "_ker": 5823,
      "_accom": 5824,
      "_regime": 5825,
      "_sympt": 5826,
      "_vowel": 5827,
      "_hang": 5828,
      "_forth": 5829,
      "_spaces": 5830,
      "_anyone": 5831,
      "_ern": 5832,
      "_molecular": 5833,
      "_finnish": 5834,
      "_tab": 5835,
      "inations": 5836,
      "ctic": 5837,
      "_substit": 5838,
      "_einstein": 5839,
      "_lem": 5840,
      "eline": 5841,
      "_lords": 5842,
      "commun": 5843,
      "_faster": 5844,
      "_finished": 5845,
      "_norway": 5846,
      "_propag": 5847,
      "_identical": 5848,
      "_collected": 5849,
      "_byzantine": 5850,
      "_accompl": 5851,
      "_lt": 5852,
      "ructions": 5853,
      "_breed": 5854,
      "_alternate": 5855,
      "_punish": 5856,
      "_task": 5857,
      "_mobile": 5858,
      "_veloc": 5859,
      "_cuis": 5860,
      "_vul": 5861,
      "_suicide": 5862,
      "keley": 5863,
      "_knights": 5864,
      "_functional": 5865,
      "_gradually": 5866,
      "_corresponding": 5867,
      "ranean": 5868,
      "_physicist": 5869,
      "jan": 5870,
      "_hier": 5871,
      "othe": 5872,
      "_notion": 5873,
      "do": 5874,
      "_gang": 5875,
      "_hera": 5876,
      "_exclud": 5877,
      "_newly": 5878,
      "_instruction": 5879,
      "_meters": 5880,
      "_exped": 5881,
      "_geometry": 5882,
      "_cinema": 5883,
      "umes": 5884,
      "_trading": 5885,
      "_conventional": 5886,
      "_jump": 5887,
      "_scul": 5888,
      "_residents": 5889,
      "_patients": 5890,
      "_inflation": 5891,
      "_successor": 5892,
      "_mathbf": 5893,
      "_chess": 5894,
      "_calc": 5895,
      "enna": 5896,
      "_peninsula": 5897,
      "_herit": 5898,
      "_rural": 5899,
      "_orb": 5900,
      "_comprehens": 5901,
      "_save": 5902,
      "_insur": 5903,
      "_markets": 5904,
      "_explor": 5905,
      "_characteristic": 5906,
      "_adding": 5907,
      "ipped": 5908,
      "_abstract": 5909,
      "_mt": 5910,
      "stan": 5911,
      "_emperors": 5912,
      "_walls": 5913,
      "_converted": 5914,
      "ylvania": 5915,
      "_manuscript": 5916,
      "sis": 5917,
      "_hack": 5918,
      "_sections": 5919,
      "_alan": 5920,
      "_boys": 5921,
      "_logo": 5922,
      "_variable": 5923,
      "_recover": 5924,
      "_batman": 5925,
      "_succession": 5926,
      "_alk": 5927,
      "_earl": 5928,
      "_consisting": 5929,
      "_categories": 5930,
      "ded": 5931,
      "ss": 5932,
      "_aber": 5933,
      "_shad": 5934,
      "_adap": 5935,
      "inson": 5936,
      "_headquar": 5937,
      "_berkeley": 5938,
      "chen": 5939,
      "iling": 5940,
      "cel": 5941,
      "_weather": 5942,
      "_decade": 5943,
      "_bird": 5944,
      "hu": 5945,
      "under": 5946,
      "_memorial": 5947,
      "_survey": 5948,
      "_drawing": 5949,
      "_acquired": 5950,
      "_caribbean": 5951,
      "ture": 5952,
      "_kat": 5953,
      "_allies": 5954,
      "_dimensional": 5955,
      "_pent": 5956,
      "_dod": 5957,
      "_spectr": 5958,
      "_simon": 5959,
      "_humor": 5960,
      "_magnetic": 5961,
      "_conversion": 5962,
      "_prayer": 5963,
      "_abandoned": 5964,
      "jection": 5965,
      "_plural": 5966,
      "_opponents": 5967,
      "_libr": 5968,
      "_indonesia": 5969,
      "_dick": 5970,
      "ela": 5971,
      "_guy": 5972,
      "_slav": 5973,
      "_parent": 5974,
      "_frequent": 5975,
      "_constantin": 5976,
      "_cartoon": 5977,
      "opp": 5978,
      "oked": 5979,
      "_warfare": 5980,
      "_reforms": 5981,
      "_ottoman": 5982,
      "_appropriate": 5983,
      "_spectrum": 5984,
      "_pig": 5985,
      "_giant": 5986,
      "udes": 5987,
      "_consult": 5988,
      "_incident": 5989,
      "_measured": 5990,
      "_successfully": 5991,
      "_mike": 5992,
      "mo": 5993,
      "_genus": 5994,
      "_facts": 5995,
      "_gnu": 5996,
      "_stored": 5997,
      "_forb": 5998,
      "_colour": 5999,
      "_offensive": 6000,
      "_edited": 6001,
      "_greg": 6002,
      "_judicial": 6003,
      "_concerns": 6004,
      "_ore": 6005,
      "_stress": 6006,
      "_kra": 6007,
      "_component": 6008,
      "_resemb": 6009,
      "_complexity": 6010,
      "_phenomenon": 6011,
      "_morn": 6012,
      "_minimum": 6013,
      "_escape": 6014,
      "_passing": 6015,
      "_lowest": 6016,
      "_substantial": 6017,
      "_comparison": 6018,
      "_alexandria": 6019,
      "ipher": 6020,
      "_brun": 6021,
      "_classified": 6022,
      "_solo": 6023,
      "_capitalism": 6024,
      "_doubt": 6025,
      "_experienced": 6026,
      "uch": 6027,
      "ilit": 6028,
      "opher": 6029,
      "_colors": 6030,
      "_attended": 6031,
      "_strings": 6032,
      "_possibility": 6033,
      "_essay": 6034,
      "_karl": 6035,
      "_learned": 6036,
      "_ghost": 6037,
      "_olympic": 6038,
      "equ": 6039,
      "_tank": 6040,
      "_interior": 6041,
      "_switzer": 6042,
      "_iceland": 6043,
      "_consumption": 6044,
      "aved": 6045,
      "_meat": 6046,
      "_demograph": 6047,
      "_arguments": 6048,
      "_capture": 6049,
      "_lunar": 6050,
      "_theology": 6051,
      "_inqu": 6052,
      "_stim": 6053,
      "_hear": 6054,
      "_rif": 6055,
      "itions": 6056,
      "_accurate": 6057,
      "_baltic": 6058,
      "_sculpt": 6059,
      "_lev": 6060,
      "_compact": 6061,
      "_clin": 6062,
      "_joe": 6063,
      "_profit": 6064,
      "_multipl": 6065,
      "_branches": 6066,
      "_axis": 6067,
      "_dollar": 6068,
      "_vent": 6069,
      "_empt": 6070,
      "_quad": 6071,
      "_basket": 6072,
      "_manufacturing": 6073,
      "_selling": 6074,
      "alo": 6075,
      "_onto": 6076,
      "_immigr": 6077,
      "ji": 6078,
      "_wheel": 6079,
      "_eval": 6080,
      "_flav": 6081,
      "_mong": 6082,
      "_excell": 6083,
      "_mayor": 6084,
      "_mediter": 6085,
      "_colleges": 6086,
      "_furthermore": 6087,
      "_demographics": 6088,
      "sm": 6089,
      "_beng": 6090,
      "ethe": 6091,
      "_racing": 6092,
      "ni": 6093,
      "_spot": 6094,
      "issance": 6095,
      "_limits": 6096,
      "_implementation": 6097,
      "igenous": 6098,
      "_probability": 6099,
      "_util": 6100,
      "_switzerland": 6101,
      "oly": 6102,
      "lets": 6103,
      "osa": 6104,
      "_worth": 6105,
      "_syll": 6106,
      "_constantine": 6107,
      "_conducted": 6108,
      "_telephone": 6109,
      "_mediterranean": 6110,
      "_voy": 6111,
      "_coff": 6112,
      "_steve": 6113,
      "_soph": 6114,
      "ila": 6115,
      "_compression": 6116,
      "_disappe": 6117,
      "velt": 6118,
      "_perceived": 6119,
      "_medal": 6120,
      "_volcan": 6121,
      "oir": 6122,
      "_indigenous": 6123,
      "athan": 6124,
      "_themes": 6125,
      "_norwe": 6126,
      "_organic": 6127,
      "_painting": 6128,
      "_oblig": 6129,
      "hus": 6130,
      "_node": 6131,
      "_dale": 6132,
      "_bruce": 6133,
      "_anglican": 6134,
      "_aids": 6135,
      "_alien": 6136,
      "_voting": 6137,
      "pton": 6138,
      "_esper": 6139,
      "_missile": 6140,
      "_watch": 6141,
      "gel": 6142,
      "_anch": 6143,
      "_kr": 6144,
      "_roose": 6145,
      "_insert": 6146,
      "_explained": 6147,
      "naissance": 6148,
      "_mechanism": 6149,
      "_dropped": 6150,
      "nia": 6151,
      "_syria": 6152,
      "_explain": 6153,
      "_walk": 6154,
      "_buried": 6155,
      "_hamilton": 6156,
      "_columbus": 6157,
      "_holiday": 6158,
      "hire": 6159,
      "apse": 6160,
      "_evangel": 6161,
      "_buff": 6162,
      "_finding": 6163,
      "_fresh": 6164,
      "_bin": 6165,
      "_lisp": 6166,
      "ulating": 6167,
      "_kur": 6168,
      "ugos": 6169,
      "_carrier": 6170,
      "_davis": 6171,
      "apping": 6172,
      "_violent": 6173,
      "_fellow": 6174,
      "_preferred": 6175,
      "bell": 6176,
      "oa": 6177,
      "_pleas": 6178,
      "hr": 6179,
      "ublin": 6180,
      "ifications": 6181,
      "_airlines": 6182,
      "_operated": 6183,
      "_bonds": 6184,
      "_ohio": 6185,
      "iac": 6186,
      "_beings": 6187,
      "_stu": 6188,
      "_soil": 6189,
      "_phoen": 6190,
      "_pref": 6191,
      "_assigned": 6192,
      "_coastal": 6193,
      "_integrated": 6194,
      "_launch": 6195,
      "_diagn": 6196,
      "_brian": 6197,
      "_gran": 6198,
      "oto": 6199,
      "agen": 6200,
      "_statements": 6201,
      "_trip": 6202,
      "ucky": 6203,
      "_dependent": 6204,
      "_bacteria": 6205,
      "fo": 6206,
      "_charged": 6207,
      "_muhammad": 6208,
      "_organisms": 6209,
      "_hole": 6210,
      "_roosevelt": 6211,
      "icians": 6212,
      "roit": 6213,
      "_corporate": 6214,
      "_explanation": 6215,
      "zen": 6216,
      "_diseases": 6217,
      "_familiar": 6218,
      "_marsh": 6219,
      "point": 6220,
      "wick": 6221,
      "_cul": 6222,
      "_lamb": 6223,
      "_gary": 6224,
      "_calling": 6225,
      "_statist": 6226,
      "going": 6227,
      "_definitions": 6228,
      "_douglas": 6229,
      "_nut": 6230,
      "uras": 6231,
      "_monster": 6232,
      "ylan": 6233,
      "archers": 6234,
      "dy": 6235,
      "_leap": 6236,
      "_accused": 6237,
      "_grey": 6238,
      "pson": 6239,
      "_pdf": 6240,
      "_circumstances": 6241,
      "_sid": 6242,
      "_dio": 6243,
      "_gem": 6244,
      "_bears": 6245,
      "_stro": 6246,
      "acc": 6247,
      "_haz": 6248,
      "_fled": 6249,
      "_fairly": 6250,
      "_penns": 6251,
      "_pus": 6252,
      "ingly": 6253,
      "_sche": 6254,
      "_galile": 6255,
      "_argentina": 6256,
      "_struggle": 6257,
      "_piano": 6258,
      "_crop": 6259,
      "_dre": 6260,
      "_keyboard": 6261,
      "_closer": 6262,
      "_oriented": 6263,
      "_touch": 6264,
      "aly": 6265,
      "_votes": 6266,
      "_divisions": 6267,
      "_approved": 6268,
      "_documentary": 6269,
      "_wilson": 6270,
      "_tropical": 6271,
      "illes": 6272,
      "_generated": 6273,
      "_swiss": 6274,
      "_algorithms": 6275,
      "_hierarch": 6276,
      "_hans": 6277,
      "_gy": 6278,
      "_flood": 6279,
      "_founding": 6280,
      "_philipp": 6281,
      "_amongst": 6282,
      "_scientist": 6283,
      "_proteins": 6284,
      "_heritage": 6285,
      "athe": 6286,
      "_lud": 6287,
      "_rid": 6288,
      "_characterized": 6289,
      "_campus": 6290,
      "_walter": 6291,
      "_boundaries": 6292,
      "_jar": 6293,
      "ortion": 6294,
      "_spelling": 6295,
      "_agents": 6296,
      "_detroit": 6297,
      "_execution": 6298,
      "_virtually": 6299,
      "_elsewhere": 6300,
      "_inducted": 6301,
      "_rising": 6302,
      "_moves": 6303,
      "_shock": 6304,
      "_cloth": 6305,
      "_marc": 6306,
      "_experiments": 6307,
      "_calculus": 6308,
      "_bishops": 6309,
      "_lyrics": 6310,
      "_cuisine": 6311,
      "_norwegian": 6312,
      "_tag": 6313,
      "_disorder": 6314,
      "_desire": 6315,
      "hedral": 6316,
      "_steps": 6317,
      "_illegal": 6318,
      "_gather": 6319,
      "_increases": 6320,
      "_delta": 6321,
      "_industries": 6322,
      "_researchers": 6323,
      "_thinking": 6324,
      "_skills": 6325,
      "_floor": 6326,
      "_pennsylvania": 6327,
      "bl": 6328,
      "_tone": 6329,
      "_ny": 6330,
      "_chlor": 6331,
      "_continent": 6332,
      "_ensure": 6333,
      "_symptoms": 6334,
      "je": 6335,
      "kt": 6336,
      "alism": 6337,
      "_yes": 6338,
      "_experimental": 6339,
      "_roles": 6340,
      "_teacher": 6341,
      "_armen": 6342,
      "_palestinian": 6343,
      "any": 6344,
      "_dylan": 6345,
      "_orange": 6346,
      "_shut": 6347,
      "_libert": 6348,
      "_influences": 6349,
      "_falls": 6350,
      "_pilot": 6351,
      "_beautiful": 6352,
      "_dublin": 6353,
      "_forming": 6354,
      "_hills": 6355,
      "_benefit": 6356,
      "_waves": 6357,
      "ima": 6358,
      "_retired": 6359,
      "_greeks": 6360,
      "_requirements": 6361,
      "_begun": 6362,
      "gments": 6363,
      "_prove": 6364,
      "_seek": 6365,
      "_charges": 6366,
      "_acids": 6367,
      "_divers": 6368,
      "_finalist": 6369,
      "_gravity": 6370,
      "_prepared": 6371,
      "_admiral": 6372,
      "bed": 6373,
      "tz": 6374,
      "_aero": 6375,
      "_morm": 6376,
      "_hond": 6377,
      "_canal": 6378,
      "_guns": 6379,
      "inus": 6380,
      "_kim": 6381,
      "osing": 6382,
      "_partner": 6383,
      "_singular": 6384,
      "_passage": 6385,
      "_winner": 6386,
      "_assistance": 6387,
      "_sleep": 6388,
      "_tast": 6389,
      "ali": 6390,
      "_hits": 6391,
      "_surf": 6392,
      "_depends": 6393,
      "_angels": 6394,
      "ambig": 6395,
      "_gibral": 6396,
      "_hypothesis": 6397,
      "_mol": 6398,
      "rance": 6399,
      "_esp": 6400,
      "_portray": 6401,
      "_lithuania": 6402,
      "_germans": 6403,
      "_constantinople": 6404,
      "herent": 6405,
      "_borders": 6406,
      "_athens": 6407,
      "_joy": 6408,
      "hips": 6409,
      "_descent": 6410,
      "_resource": 6411,
      "_theoretical": 6412,
      "_grown": 6413,
      "_morning": 6414,
      "_ace": 6415,
      "_ecl": 6416,
      "chy": 6417,
      "oters": 6418,
      "_rice": 6419,
      "_signals": 6420,
      "_tales": 6421,
      "_emerged": 6422,
      "_transmission": 6423,
      "_velocity": 6424,
      "_um": 6425,
      "_sight": 6426,
      "_fen": 6427,
      "_hiv": 6428,
      "omer": 6429,
      "_rud": 6430,
      "_yah": 6431,
      "_amend": 6432,
      "ords": 6433,
      "_agave": 6434,
      "_glac": 6435,
      "_additionally": 6436,
      "_visited": 6437,
      "_identify": 6438,
      "_motiv": 6439,
      "awa": 6440,
      "_infantry": 6441,
      "_intent": 6442,
      "_reserve": 6443,
      "_poems": 6444,
      "_decisions": 6445,
      "_northwest": 6446,
      "_testing": 6447,
      "_ross": 6448,
      "_baptism": 6449,
      "_fluid": 6450,
      "_frederick": 6451,
      "een": 6452,
      "_cert": 6453,
      "_hou": 6454,
      "iration": 6455,
      "_door": 6456,
      "_produces": 6457,
      "_depth": 6458,
      "_pronunciation": 6459,
      "_electrons": 6460,
      "_gibraltar": 6461,
      "wers": 6462,
      "_mainland": 6463,
      "_treas": 6464,
      "_inse": 6465,
      "_rene": 6466,
      "_partial": 6467,
      "_profile": 6468,
      "_pierre": 6469,
      "_aristot": 6470,
      "_ng": 6471,
      "aya": 6472,
      "_contrad": 6473,
      "_tests": 6474,
      "_facilities": 6475,
      "_driven": 6476,
      "_integral": 6477,
      "_distinguish": 6478,
      "_annex": 6479,
      "_chairman": 6480,
      "_entertainment": 6481,
      "_tens": 6482,
      "_sig": 6483,
      "_cash": 6484,
      "_populations": 6485,
      "_basque": 6486,
      "_revel": 6487,
      "_variant": 6488,
      "_millenn": 6489,
      "_opponent": 6490,
      "_solutions": 6491,
      "_ruler": 6492,
      "_evolutionary": 6493,
      "bish": 6494,
      "hum": 6495,
      "_gif": 6496,
      "ogy": 6497,
      "_bowl": 6498,
      "_conquest": 6499,
      "_bull": 6500,
      "_ing": 6501,
      "_stret": 6502,
      "_shift": 6503,
      "_laid": 6504,
      "_presid": 6505,
      "_preserved": 6506,
      "_crimes": 6507,
      "_laboratory": 6508,
      "_printed": 6509,
      "bre": 6510,
      "_burg": 6511,
      "osph": 6512,
      "abilities": 6513,
      "_perspective": 6514,
      "_ritual": 6515,
      "_pel": 6516,
      "omial": 6517,
      "_perp": 6518,
      "_polar": 6519,
      "_shaped": 6520,
      "contin": 6521,
      "_horizon": 6522,
      "_notation": 6523,
      "_compound": 6524,
      "_charter": 6525,
      "_announ": 6526,
      "_attacked": 6527,
      "_habit": 6528,
      "_scheme": 6529,
      "_napoleon": 6530,
      "_ok": 6531,
      "_sad": 6532,
      "_thor": 6533,
      "omes": 6534,
      "eters": 6535,
      "_exile": 6536,
      "_attached": 6537,
      "_triang": 6538,
      "inate": 6539,
      "_bug": 6540,
      "_colomb": 6541,
      "_depos": 6542,
      "_retrie": 6543,
      "_channels": 6544,
      "_keeping": 6545,
      "_extinct": 6546,
      "idae": 6547,
      "_heli": 6548,
      "_prol": 6549,
      "_waters": 6550,
      "lan": 6551,
      "sa": 6552,
      "_bog": 6553,
      "_wine": 6554,
      "aka": 6555,
      "_tracks": 6556,
      "_dragon": 6557,
      "_grounds": 6558,
      "_clubs": 6559,
      "_emphasis": 6560,
      "_procedure": 6561,
      "_kilometers": 6562,
      "_rebellion": 6563,
      "_nan": 6564,
      "_residence": 6565,
      "_franch": 6566,
      "_legacy": 6567,
      "_predict": 6568,
      "_municipal": 6569,
      "bar": 6570,
      "_pas": 6571,
      "_mouse": 6572,
      "_dating": 6573,
      "_alg": 6574,
      "_abuse": 6575,
      "_locations": 6576,
      "_gregor": 6577,
      "_journey": 6578,
      "_diplomatic": 6579,
      "_ontar": 6580,
      "_usual": 6581,
      "_roy": 6582,
      "_goals": 6583,
      "_maria": 6584,
      "_volt": 6585,
      "_meanings": 6586,
      "_boundary": 6587,
      "_cass": 6588,
      "isted": 6589,
      "ruption": 6590,
      "_overview": 6591,
      "ployment": 6592,
      "_suspect": 6593,
      "fort": 6594,
      "_planning": 6595,
      "_directors": 6596,
      "_judges": 6597,
      "_comprehensive": 6598,
      "_dur": 6599,
      "_referring": 6600,
      "_corps": 6601,
      "_naturally": 6602,
      "_sugar": 6603,
      "_ontario": 6604,
      "cal": 6605,
      "_cited": 6606,
      "_bach": 6607,
      "_partially": 6608,
      "ieth": 6609,
      "_simult": 6610,
      "_archbish": 6611,
      "_restaur": 6612,
      "_citizen": 6613,
      "_consumer": 6614,
      "_vocal": 6615,
      "hl": 6616,
      "tering": 6617,
      "_sched": 6618,
      "_angle": 6619,
      "_certainly": 6620,
      "_claud": 6621,
      "_jurisdiction": 6622,
      "arians": 6623,
      "_representing": 6624,
      "_liberty": 6625,
      "_filled": 6626,
      "_disney": 6627,
      "_representative": 6628,
      "_vowels": 6629,
      "_descendants": 6630,
      "_esperanto": 6631,
      "di": 6632,
      "net": 6633,
      "_theod": 6634,
      "_theolog": 6635,
      "_hes": 6636,
      "_wear": 6637,
      "_papers": 6638,
      "_contributions": 6639,
      "wald": 6640,
      "enstein": 6641,
      "_notice": 6642,
      "_pover": 6643,
      "_varies": 6644,
      "_patent": 6645,
      "_protected": 6646,
      "_soldier": 6647,
      "_condem": 6648,
      "_fug": 6649,
      "_expert": 6650,
      "_cypr": 6651,
      "_cleve": 6652,
      "_engineer": 6653,
      "_starring": 6654,
      "_responsibility": 6655,
      "_roads": 6656,
      "_manifest": 6657,
      "_beach": 6658,
      "_exceed": 6659,
      "_equator": 6660,
      "_enforce": 6661,
      "_poverty": 6662,
      "rog": 6663,
      "_kel": 6664,
      "_roger": 6665,
      "play": 6666,
      "_knew": 6667,
      "_interaction": 6668,
      "_imports": 6669,
      "_rhyth": 6670,
      "_ultimate": 6671,
      "_carrying": 6672,
      "_enemies": 6673,
      "rep": 6674,
      "_tox": 6675,
      "romagn": 6676,
      "_covers": 6677,
      "_defensive": 6678,
      "issions": 6679,
      "_remove": 6680,
      "_headed": 6681,
      "know": 6682,
      "_commentary": 6683,
      "_dal": 6684,
      "_khan": 6685,
      "emble": 6686,
      "_longest": 6687,
      "_camps": 6688,
      "_opportunity": 6689,
      "_horses": 6690,
      "iative": 6691,
      "_liv": 6692,
      "_thro": 6693,
      "_vienna": 6694,
      "_photograph": 6695,
      "_districts": 6696,
      "_ky": 6697,
      "iph": 6698,
      "_goog": 6699,
      "_slave": 6700,
      "oys": 6701,
      "ourse": 6702,
      "pping": 6703,
      "_boat": 6704,
      "_constitu": 6705,
      "_obtain": 6706,
      "_enterpr": 6707,
      "_lam": 6708,
      "olis": 6709,
      "_xx": 6710,
      "_legit": 6711,
      "_landing": 6712,
      "_easier": 6713,
      "_senator": 6714,
      "life": 6715,
      "rint": 6716,
      "_aar": 6717,
      "_tol": 6718,
      "_prosec": 6719,
      "riers": 6720,
      "_technologies": 6721,
      "_confused": 6722,
      "_performing": 6723,
      "_ukra": 6724,
      "_survived": 6725,
      "_percentage": 6726,
      "_caval": 6727,
      "_au": 6728,
      "_vit": 6729,
      "_warm": 6730,
      "_variation": 6731,
      "_followers": 6732,
      "_surren": 6733,
      "ropy": 6734,
      "_horror": 6735,
      "_difficulty": 6736,
      "world": 6737,
      "_sharp": 6738,
      "_dismiss": 6739,
      "_headquarters": 6740,
      "_tut": 6741,
      "_sod": 6742,
      "oric": 6743,
      "phal": 6744,
      "_metall": 6745,
      "_matrix": 6746,
      "_owner": 6747,
      "_organisation": 6748,
      "_eric": 6749,
      "_briefly": 6750,
      "cs": 6751,
      "mat": 6752,
      "_faced": 6753,
      "_buck": 6754,
      "_hann": 6755,
      "_reactions": 6756,
      "_arn": 6757,
      "_shop": 6758,
      "_earn": 6759,
      "aneously": 6760,
      "_structural": 6761,
      "_collapse": 6762,
      "_kinds": 6763,
      "_celebrated": 6764,
      "_kuwa": 6765,
      "writer": 6766,
      "_taiwan": 6767,
      "_relativity": 6768,
      "_schedul": 6769,
      "kin": 6770,
      "_chad": 6771,
      "_presidents": 6772,
      "_mah": 6773,
      "ynam": 6774,
      "_benj": 6775,
      "_indicates": 6776,
      "_bulgar": 6777,
      "_composers": 6778,
      "_cleveland": 6779,
      "_send": 6780,
      "_ety": 6781,
      "_tot": 6782,
      "_arithm": 6783,
      "_variants": 6784,
      "_brows": 6785,
      "_communism": 6786,
      "_operate": 6787,
      "_config": 6788,
      "_didn": 6789,
      "_getting": 6790,
      "_interpreted": 6791,
      "iot": 6792,
      "_tong": 6793,
      "_wels": 6794,
      "_originated": 6795,
      "_debt": 6796,
      "_dy": 6797,
      "_copies": 6798,
      "_metropolitan": 6799,
      "_bibliography": 6800,
      "ani": 6801,
      "_congreg": 6802,
      "_unic": 6803,
      "_acknow": 6804,
      "_photos": 6805,
      "_laureate": 6806,
      "fe": 6807,
      "_align": 6808,
      "_sox": 6809,
      "_downtown": 6810,
      "_absence": 6811,
      "_senior": 6812,
      "_seemed": 6813,
      "_monarchy": 6814,
      "_crystal": 6815,
      "erves": 6816,
      "_ms": 6817,
      "icas": 6818,
      "_stages": 6819,
      "ifer": 6820,
      "_afterwards": 6821,
      "_minute": 6822,
      "_sunday": 6823,
      "_possession": 6824,
      "_forests": 6825,
      "_victoria": 6826,
      "_etym": 6827,
      "_tiss": 6828,
      "_fm": 6829,
      "_wound": 6830,
      "_rib": 6831,
      "irect": 6832,
      "_blow": 6833,
      "_deput": 6834,
      "_humanity": 6835,
      "_prophet": 6836,
      "_thirty": 6837,
      "_encod": 6838,
      "_friedrich": 6839,
      "_emergency": 6840,
      "_dos": 6841,
      "_gone": 6842,
      "sters": 6843,
      "idel": 6844,
      "athy": 6845,
      "_constell": 6846,
      "_confirmed": 6847,
      "_nasa": 6848,
      "anth": 6849,
      "_lis": 6850,
      "_contest": 6851,
      "ructure": 6852,
      "_symp": 6853,
      "_pitch": 6854,
      "shire": 6855,
      "_credited": 6856,
      "_deliber": 6857,
      "ographer": 6858,
      "_abbrev": 6859,
      "_presidency": 6860,
      "_bun": 6861,
      "_pyth": 6862,
      "_inch": 6863,
      "_unix": 6864,
      "_eleph": 6865,
      "_carter": 6866,
      "_keys": 6867,
      "_translations": 6868,
      "_promote": 6869,
      "_encouraged": 6870,
      "_aven": 6871,
      "inder": 6872,
      "_jama": 6873,
      "_christopher": 6874,
      "_myst": 6875,
      "_victims": 6876,
      "zilla": 6877,
      "_bart": 6878,
      "_conven": 6879,
      "_whit": 6880,
      "_jet": 6881,
      "_belarus": 6882,
      "_southwest": 6883,
      "_earthqu": 6884,
      "_substances": 6885,
      "_lenin": 6886,
      "mond": 6887,
      "wart": 6888,
      "_tay": 6889,
      "_cave": 6890,
      "osure": 6891,
      "aga": 6892,
      "_offers": 6893,
      "_instructions": 6894,
      "_ports": 6895,
      "_animated": 6896,
      "_profession": 6897,
      "_bronze": 6898,
      "_libraries": 6899,
      "_mp": 6900,
      "unct": 6901,
      "_consec": 6902,
      "_assault": 6903,
      "_memb": 6904,
      "_armies": 6905,
      "_antiqu": 6906,
      "_reduction": 6907,
      "_colorado": 6908,
      "_happened": 6909,
      "_transferred": 6910,
      "_candidates": 6911,
      "_benjamin": 6912,
      "dor": 6913,
      "_santa": 6914,
      "_fib": 6915,
      "_bav": 6916,
      "_apoc": 6917,
      "_bases": 6918,
      "_buy": 6919,
      "ikh": 6920,
      "_antar": 6921,
      "_everyone": 6922,
      "_copper": 6923,
      "iracy": 6924,
      "_focused": 6925,
      "pool": 6926,
      "unction": 6927,
      "_hex": 6928,
      "kee": 6929,
      "_romantic": 6930,
      "_passenger": 6931,
      "_nato": 6932,
      "_discussed": 6933,
      "worth": 6934,
      "_premier": 6935,
      "_behaviour": 6936,
      "pes": 6937,
      "owa": 6938,
      "_chal": 6939,
      "_chose": 6940,
      "_arrow": 6941,
      "_amate": 6942,
      "_client": 6943,
      "_relief": 6944,
      "_epic": 6945,
      "chester": 6946,
      "_credit": 6947,
      "_sust": 6948,
      "_pir": 6949,
      "_marg": 6950,
      "_warri": 6951,
      "_intervent": 6952,
      "_matthe": 6953,
      "_curt": 6954,
      "_hunting": 6955,
      "_lesser": 6956,
      "_titled": 6957,
      "_linguistic": 6958,
      "_chromos": 6959,
      "_bernard": 6960,
      "_southeast": 6961,
      "rator": 6962,
      "_listing": 6963,
      "load": 6964,
      "_continuing": 6965,
      "gue": 6966,
      "ivals": 6967,
      "_funds": 6968,
      "_personality": 6969,
      "_disputed": 6970,
      "_mexican": 6971,
      "_sudden": 6972,
      "_syndrome": 6973,
      "ratic": 6974,
      "_sq": 6975,
      "_mile": 6976,
      "_gly": 6977,
      "_suit": 6978,
      "_flash": 6979,
      "_provision": 6980,
      "_patient": 6981,
      "_borrow": 6982,
      "_phenomena": 6983,
      "_png": 6984,
      "ora": 6985,
      "_reaching": 6986,
      "_manip": 6987,
      "_artistic": 6988,
      "_guar": 6989,
      "_regardless": 6990,
      "_icon": 6991,
      "_automob": 6992,
      "_diagr": 6993,
      "onymous": 6994,
      "_basketball": 6995,
      "_houston": 6996,
      "_welsh": 6997,
      "_dir": 6998,
      "ifies": 6999,
      "_speaker": 7000,
      "_twentieth": 7001,
      "_restricted": 7002,
      "_restrictions": 7003,
      "ocaust": 7004,
      "_assassination": 7005,
      "_holidays": 7006,
      "_cyprus": 7007,
      "eur": 7008,
      "_cot": 7009,
      "_thick": 7010,
      "unte": 7011,
      "_proven": 7012,
      "opes": 7013,
      "aked": 7014,
      "_archive": 7015,
      "_holocaust": 7016,
      "_planets": 7017,
      "_consistent": 7018,
      "_carolina": 7019,
      "ystem": 7020,
      "rect": 7021,
      "_dd": 7022,
      "_lion": 7023,
      "oma": 7024,
      "_hash": 7025,
      "_poison": 7026,
      "_campbell": 7027,
      "_ethical": 7028,
      "_losing": 7029,
      "_comparative": 7030,
      "_isaac": 7031,
      "ugosl": 7032,
      "_reverse": 7033,
      "_yugosl": 7034,
      "_engaged": 7035,
      "_secure": 7036,
      "_stead": 7037,
      "_survive": 7038,
      "_unsu": 7039,
      "_commodore": 7040,
      "_empty": 7041,
      "_sor": 7042,
      "_mira": 7043,
      "_commons": 7044,
      "_secular": 7045,
      "ika": 7046,
      "elson": 7047,
      "_breaking": 7048,
      "_engineers": 7049,
      "_bald": 7050,
      "_rebu": 7051,
      "_baptist": 7052,
      "_laser": 7053,
      "_ownership": 7054,
      "_tony": 7055,
      "_toler": 7056,
      "_gord": 7057,
      "_isot": 7058,
      "_unity": 7059,
      "abil": 7060,
      "_persec": 7061,
      "_operator": 7062,
      "_sentence": 7063,
      "_squad": 7064,
      "_statistical": 7065,
      "_honey": 7066,
      "ido": 7067,
      "_rug": 7068,
      "_leo": 7069,
      "_disput": 7070,
      "_resident": 7071,
      "_presum": 7072,
      "_eccles": 7073,
      "_chancell": 7074,
      "_uncertain": 7075,
      "_neck": 7076,
      "_shah": 7077,
      "_boeing": 7078,
      "_grass": 7079,
      "_submar": 7080,
      "_volunte": 7081,
      "_virus": 7082,
      "_psychological": 7083,
      "_sacred": 7084,
      "_progressive": 7085,
      "_ranked": 7086,
      "oh": 7087,
      "_bh": 7088,
      "_duck": 7089,
      "ilst": 7090,
      "_congo": 7091,
      "_disambig": 7092,
      "_aggress": 7093,
      "_loose": 7094,
      "_avo": 7095,
      "_licens": 7096,
      "_gallery": 7097,
      "_slavery": 7098,
      "_contrary": 7099,
      "_insul": 7100,
      "_diverse": 7101,
      "_morph": 7102,
      "_democrats": 7103,
      "_gothic": 7104,
      "wall": 7105,
      "_revers": 7106,
      "_hein": 7107,
      "_serves": 7108,
      "_herbert": 7109,
      "ovo": 7110,
      "_cathedral": 7111,
      "_homer": 7112,
      "_territorial": 7113,
      "_reducing": 7114,
      "_administer": 7115,
      "_hotel": 7116,
      "_implemented": 7117,
      "_distinctive": 7118,
      "_challenge": 7119,
      "_cf": 7120,
      "_wish": 7121,
      "_renaissance": 7122,
      "_marks": 7123,
      "_monop": 7124,
      "_electoral": 7125,
      "_offices": 7126,
      "_drag": 7127,
      "_couple": 7128,
      "_adapted": 7129,
      "_dioxide": 7130,
      "bolic": 7131,
      "_sher": 7132,
      "_wy": 7133,
      "ili": 7134,
      "acent": 7135,
      "_insurance": 7136,
      "_cad": 7137,
      "_nich": 7138,
      "_rear": 7139,
      "_seasons": 7140,
      "_unem": 7141,
      "_clark": 7142,
      "_resol": 7143,
      "_cole": 7144,
      "_outer": 7145,
      "_beta": 7146,
      "_anthony": 7147,
      "_hetero": 7148,
      "_surrender": 7149,
      "zer": 7150,
      "_tap": 7151,
      "_tang": 7152,
      "organ": 7153,
      "_remov": 7154,
      "_steam": 7155,
      "_civilian": 7156,
      "_ruling": 7157,
      "_females": 7158,
      "_switch": 7159,
      "_mormon": 7160,
      "standing": 7161,
      "_alaska": 7162,
      "iry": 7163,
      "_array": 7164,
      "_infrast": 7165,
      "_estate": 7166,
      "_slaves": 7167,
      "_macint": 7168,
      "_duty": 7169,
      "_criticized": 7170,
      "_investigation": 7171,
      "_dress": 7172,
      "leum": 7173,
      "_conquered": 7174,
      "_bureau": 7175,
      "_enl": 7176,
      "_experiences": 7177,
      "_delay": 7178,
      "_describing": 7179,
      "_dimension": 7180,
      "_adjust": 7181,
      "_escap": 7182,
      "_cum": 7183,
      "_eli": 7184,
      "_noble": 7185,
      "_coin": 7186,
      "_carn": 7187,
      "_highway": 7188,
      "_specialized": 7189,
      "_cathol": 7190,
      "_biggest": 7191,
      "_advertising": 7192,
      "_kazakh": 7193,
      "_penalty": 7194,
      "wig": 7195,
      "_dot": 7196,
      "_enorm": 7197,
      "_disag": 7198,
      "tsky": 7199,
      "_seconds": 7200,
      "_driver": 7201,
      "_demonstrated": 7202,
      "_pollution": 7203,
      "_trigger": 7204,
      "_expedition": 7205,
      "_kern": 7206,
      "_subt": 7207,
      "_balt": 7208,
      "_cavalry": 7209,
      "uable": 7210,
      "_sic": 7211,
      "_lose": 7212,
      "cho": 7213,
      "_chip": 7214,
      "_contra": 7215,
      "_marit": 7216,
      "_starts": 7217,
      "_approxim": 7218,
      "_observations": 7219,
      "_circumc": 7220,
      "_banned": 7221,
      "_ni": 7222,
      "_jos": 7223,
      "_shif": 7224,
      "_resc": 7225,
      "_feud": 7226,
      "_blade": 7227,
      "obi": 7228,
      "_winds": 7229,
      "_petroleum": 7230,
      "_bulgaria": 7231,
      "din": 7232,
      "_kash": 7233,
      "_shr": 7234,
      "_rocks": 7235,
      "_meg": 7236,
      "aret": 7237,
      "_depicted": 7238,
      "_retained": 7239,
      "_receiving": 7240,
      "_integer": 7241,
      "_coffee": 7242,
      "nament": 7243,
      "_enab": 7244,
      "_loop": 7245,
      "_electromagn": 7246,
      "_differential": 7247,
      "_confusion": 7248,
      "_symph": 7249,
      "_massac": 7250,
      "_maxim": 7251,
      "_disambiguation": 7252,
      "cow": 7253,
      "_drew": 7254,
      "_conclusion": 7255,
      "_jok": 7256,
      "_specified": 7257,
      "_corner": 7258,
      "_lifet": 7259,
      "_recipient": 7260,
      "_strategic": 7261,
      "aug": 7262,
      "_tight": 7263,
      "_aus": 7264,
      "_trained": 7265,
      "_herself": 7266,
      "_latvia": 7267,
      "_tribe": 7268,
      "_regularly": 7269,
      "_isolated": 7270,
      "adelph": 7271,
      "sch": 7272,
      "_hipp": 7273,
      "_gamm": 7274,
      "_deck": 7275,
      "_geographic": 7276,
      "_turning": 7277,
      "_declined": 7278,
      "_essays": 7279,
      "_electronics": 7280,
      "_exclusively": 7281,
      "dam": 7282,
      "_accus": 7283,
      "group": 7284,
      "_invention": 7285,
      "aza": 7286,
      "_irre": 7287,
      "_divor": 7288,
      "_doesn": 7289,
      "_camera": 7290,
      "_baby": 7291,
      "_prisoners": 7292,
      "_tells": 7293,
      "uter": 7294,
      "_alumin": 7295,
      "_brid": 7296,
      "_imprison": 7297,
      "_steven": 7298,
      "_veter": 7299,
      "_superman": 7300,
      "_sweet": 7301,
      "_bicy": 7302,
      "bec": 7303,
      "fish": 7304,
      "_pars": 7305,
      "_infer": 7306,
      "_sure": 7307,
      "_shore": 7308,
      "_turns": 7309,
      "_educated": 7310,
      "_celeb": 7311,
      "_cpu": 7312,
      "born": 7313,
      "fel": 7314,
      "_recept": 7315,
      "olas": 7316,
      "_ster": 7317,
      "_chick": 7318,
      "_benefits": 7319,
      "_cooperation": 7320,
      "_accompanied": 7321,
      "_scenes": 7322,
      "_ethiopia": 7323,
      "_py": 7324,
      "oust": 7325,
      "ington": 7326,
      "iang": 7327,
      "_amiga": 7328,
      "ello": 7329,
      "_guer": 7330,
      "_corp": 7331,
      "_statue": 7332,
      "_interested": 7333,
      "_separation": 7334,
      "_varying": 7335,
      "_catholics": 7336,
      "_flex": 7337,
      "veness": 7338,
      "_mood": 7339,
      "aca": 7340,
      "_assign": 7341,
      "_claiming": 7342,
      "_liberation": 7343,
      "_duties": 7344,
      "_integration": 7345,
      "_situations": 7346,
      "cill": 7347,
      "cope": 7348,
      "wes": 7349,
      "_gau": 7350,
      "_twin": 7351,
      "_whate": 7352,
      "_disaster": 7353,
      "_indians": 7354,
      "_races": 7355,
      "_moreover": 7356,
      "_extract": 7357,
      "_falling": 7358,
      "_slowly": 7359,
      "_ariz": 7360,
      "_patriarch": 7361,
      "_galaxy": 7362,
      "_whatever": 7363,
      "mouth": 7364,
      "_migration": 7365,
      "_isle": 7366,
      "_ask": 7367,
      "ductor": 7368,
      "_phosph": 7369,
      "_eucl": 7370,
      "_julian": 7371,
      "_molecule": 7372,
      "_gregorian": 7373,
      "oque": 7374,
      "tra": 7375,
      "_turing": 7376,
      "_dru": 7377,
      "_publicly": 7378,
      "_personnel": 7379,
      "_wiki": 7380,
      "_estimates": 7381,
      "_arrangement": 7382,
      "_aristotle": 7383,
      "_sample": 7384,
      "_nep": 7385,
      "_gluc": 7386,
      "_symmet": 7387,
      "_atlanta": 7388,
      "_connections": 7389,
      "ea": 7390,
      "rical": 7391,
      "_nam": 7392,
      "rot": 7393,
      "oli": 7394,
      "_adject": 7395,
      "_capit": 7396,
      "while": 7397,
      "_involvement": 7398,
      "_elder": 7399,
      "bu": 7400,
      "po": 7401,
      "_tale": 7402,
      "_sans": 7403,
      "_sale": 7404,
      "_hart": 7405,
      "_gates": 7406,
      "_ammon": 7407,
      "_abc": 7408,
      "_allen": 7409,
      "_varieties": 7410,
      "ostic": 7411,
      "_grace": 7412,
      "_cheap": 7413,
      "_wonder": 7414,
      "_stream": 7415,
      "_creator": 7416,
      "_synthesis": 7417,
      "_unfortun": 7418,
      "_plastic": 7419,
      "_iranian": 7420,
      "_handed": 7421,
      "_diver": 7422,
      "_verse": 7423,
      "_automatic": 7424,
      "_exclusive": 7425,
      "_tet": 7426,
      "_ay": 7427,
      "_cous": 7428,
      "omon": 7429,
      "_athen": 7430,
      "_intention": 7431,
      "place": 7432,
      "_volumes": 7433,
      "_quantity": 7434,
      "_confederate": 7435,
      "_dramatic": 7436,
      "_cricket": 7437,
      "_sovereignty": 7438,
      "_manufacturers": 7439,
      "_macintosh": 7440,
      "uv": 7441,
      "_theor": 7442,
      "_whilst": 7443,
      "_jane": 7444,
      "_collabor": 7445,
      "_surviving": 7446,
      "_supers": 7447,
      "_airports": 7448,
      "_overseas": 7449,
      "_archbishop": 7450,
      "_infrastructure": 7451,
      "_sult": 7452,
      "_pip": 7453,
      "_duc": 7454,
      "asm": 7455,
      "_passes": 7456,
      "_devil": 7457,
      "_animation": 7458,
      "_illness": 7459,
      "_prompt": 7460,
      "_commerce": 7461,
      "_observation": 7462,
      "_citizenship": 7463,
      "_moscow": 7464,
      "kan": 7465,
      "_pagan": 7466,
      "owed": 7467,
      "_uno": 7468,
      "_spell": 7469,
      "_coven": 7470,
      "_obso": 7471,
      "_supports": 7472,
      "_ibn": 7473,
      "_algebraic": 7474,
      "_efficiency": 7475,
      "_princess": 7476,
      "_strictly": 7477,
      "_punishment": 7478,
      "_option": 7479,
      "_unre": 7480,
      "_uncom": 7481,
      "_manual": 7482,
      "_earned": 7483,
      "_enjoyed": 7484,
      "_kuwait": 7485,
      "_unsuccess": 7486,
      "kel": 7487,
      "iner": 7488,
      "_cate": 7489,
      "atus": 7490,
      "_wings": 7491,
      "_kam": 7492,
      "_assess": 7493,
      "_processor": 7494,
      "_astero": 7495,
      "_babylon": 7496,
      "_portrait": 7497,
      "_permitted": 7498,
      "_vern": 7499,
      "_cord": 7500,
      "_sixth": 7501,
      "ardo": 7502,
      "_clim": 7503,
      "_raw": 7504,
      "_terminal": 7505,
      "_trotsky": 7506,
      "_teachings": 7507,
      "_delivered": 7508,
      "_intervention": 7509,
      "_lifetime": 7510,
      "_arizona": 7511,
      "cht": 7512,
      "page": 7513,
      "ses": 7514,
      "wing": 7515,
      "_floren": 7516,
      "_politicians": 7517,
      "_missiles": 7518,
      "_legendary": 7519,
      "_pairs": 7520,
      "_ere": 7521,
      "_fred": 7522,
      "_heir": 7523,
      "illed": 7524,
      "_yan": 7525,
      "_serial": 7526,
      "_counties": 7527,
      "_designated": 7528,
      "_millions": 7529,
      "_tape": 7530,
      "_covering": 7531,
      "_mixture": 7532,
      "_replacement": 7533,
      "_compatible": 7534,
      "_tort": 7535,
      "itudes": 7536,
      "esian": 7537,
      "_jam": 7538,
      "_voted": 7539,
      "ubst": 7540,
      "ressive": 7541,
      "_considerably": 7542,
      "_tempor": 7543,
      "_devoted": 7544,
      "_properly": 7545,
      "_fighter": 7546,
      "_torah": 7547,
      "_inventor": 7548,
      "_newspapers": 7549,
      "bus": 7550,
      "uct": 7551,
      "_cyl": 7552,
      "atra": 7553,
      "_wet": 7554,
      "icity": 7555,
      "_lod": 7556,
      "eman": 7557,
      "_racial": 7558,
      "_margin": 7559,
      "_recordings": 7560,
      "_winners": 7561,
      "_tunnel": 7562,
      "_arranged": 7563,
      "_buddhism": 7564,
      "_orchestra": 7565,
      "_google": 7566,
      "rant": 7567,
      "phy": 7568,
      "_curve": 7569,
      "_revised": 7570,
      "uracy": 7571,
      "_paradox": 7572,
      "_consonant": 7573,
      "_arrested": 7574,
      "_siege": 7575,
      "_pale": 7576,
      "_migr": 7577,
      "_eve": 7578,
      "str": 7579,
      "_nov": 7580,
      "_maur": 7581,
      "_approval": 7582,
      "_missions": 7583,
      "_broadcasting": 7584,
      "_genesis": 7585,
      "_conspiracy": 7586,
      "die": 7587,
      "sk": 7588,
      "_gren": 7589,
      "ista": 7590,
      "_elabor": 7591,
      "_immigration": 7592,
      "_linguistics": 7593,
      "_pull": 7594,
      "_doom": 7595,
      "_lawrence": 7596,
      "_streets": 7597,
      "_oxid": 7598,
      "_ranges": 7599,
      "_amateur": 7600,
      "_fold": 7601,
      "_dart": 7602,
      "_stick": 7603,
      "_spr": 7604,
      "_peer": 7605,
      "_peas": 7606,
      "_seeking": 7607,
      "_crash": 7608,
      "_childhood": 7609,
      "_photo": 7610,
      "helm": 7611,
      "_discipline": 7612,
      "_framework": 7613,
      "_matthew": 7614,
      "bul": 7615,
      "cock": 7616,
      "_theological": 7617,
      "una": 7618,
      "_admitted": 7619,
      "_overl": 7620,
      "_enthus": 7621,
      "_cultiv": 7622,
      "_drives": 7623,
      "_variables": 7624,
      "_purchase": 7625,
      "_prussia": 7626,
      "_explicitly": 7627,
      "_removal": 7628,
      "_obsolete": 7629,
      "_anime": 7630,
      "_gets": 7631,
      "adi": 7632,
      "_suitable": 7633,
      "achers": 7634,
      "udi": 7635,
      "_scat": 7636,
      "ruck": 7637,
      "_consens": 7638,
      "_developments": 7639,
      "_restored": 7640,
      "_disputes": 7641,
      "part": 7642,
      "itative": 7643,
      "icus": 7644,
      "rogen": 7645,
      "_neo": 7646,
      "orship": 7647,
      "_termed": 7648,
      "cessor": 7649,
      "_affil": 7650,
      "_northeast": 7651,
      "_malays": 7652,
      "_cardinal": 7653,
      "_mystery": 7654,
      "_prefix": 7655,
      "_voltage": 7656,
      "_arithmetic": 7657,
      "_gamma": 7658,
      "hyd": 7659,
      "iest": 7660,
      "mes": 7661,
      "_tub": 7662,
      "_fulf": 7663,
      "ochem": 7664,
      "endo": 7665,
      "_resign": 7666,
      "_entropy": 7667,
      "_retire": 7668,
      "_temporary": 7669,
      "_pronoun": 7670,
      "_establishing": 7671,
      "_consequently": 7672,
      "_excellent": 7673,
      "_anchor": 7674,
      "_pock": 7675,
      "esty": 7676,
      "see": 7677,
      "_neuro": 7678,
      "_assume": 7679,
      "_wayne": 7680,
      "_participation": 7681,
      "_consequences": 7682,
      "_jup": 7683,
      "agues": 7684,
      "_shorter": 7685,
      "_pear": 7686,
      "_harrison": 7687,
      "_circuits": 7688,
      "_routes": 7689,
      "_implies": 7690,
      "inals": 7691,
      "_fishing": 7692,
      "_dh": 7693,
      "_lac": 7694,
      "lyn": 7695,
      "_stability": 7696,
      "_scar": 7697,
      "_recall": 7698,
      "_info": 7699,
      "_autobi": 7700,
      "_signif": 7701,
      "roscop": 7702,
      "_baroque": 7703,
      "_miller": 7704,
      "_hypn": 7705,
      "_taylor": 7706,
      "_chancellor": 7707,
      "_ot": 7708,
      "_fusion": 7709,
      "_hub": 7710,
      "_stere": 7711,
      "ouri": 7712,
      "_worst": 7713,
      "_incom": 7714,
      "_equally": 7715,
      "_cyber": 7716,
      "_spacecraft": 7717,
      "_mississ": 7718,
      "_burning": 7719,
      "_purchased": 7720,
      "_gordon": 7721,
      "_fisc": 7722,
      "_bak": 7723,
      "_depict": 7724,
      "_johnny": 7725,
      "_hend": 7726,
      "_benz": 7727,
      "_indicated": 7728,
      "_dynamic": 7729,
      "_concluded": 7730,
      "cribed": 7731,
      "_revelation": 7732,
      "_mississipp": 7733,
      "_maced": 7734,
      "_hi": 7735,
      "imore": 7736,
      "_centers": 7737,
      "gery": 7738,
      "_proto": 7739,
      "_empir": 7740,
      "_appearances": 7741,
      "_settlements": 7742,
      "_beauty": 7743,
      "_situated": 7744,
      "_rhythm": 7745,
      "_tube": 7746,
      "_gest": 7747,
      "rage": 7748,
      "_alger": 7749,
      "_bless": 7750,
      "_monetary": 7751,
      "_finance": 7752,
      "_finds": 7753,
      "_width": 7754,
      "omorphism": 7755,
      "_scandin": 7756,
      "_liverpool": 7757,
      "enburg": 7758,
      "_bip": 7759,
      "_vl": 7760,
      "_clergy": 7761,
      "_milk": 7762,
      "_controls": 7763,
      "_returns": 7764,
      "_promoted": 7765,
      "_collective": 7766,
      "_negotiations": 7767,
      "_hawaii": 7768,
      "_immigrants": 7769,
      "_buffalo": 7770,
      "iast": 7771,
      "wed": 7772,
      "_cn": 7773,
      "onto": 7774,
      "_wins": 7775,
      "_dave": 7776,
      "_reich": 7777,
      "_smooth": 7778,
      "_exposed": 7779,
      "_vii": 7780,
      "_caught": 7781,
      "_returning": 7782,
      "_creative": 7783,
      "_messages": 7784,
      "_terminology": 7785,
      "ders": 7786,
      "_therapy": 7787,
      "_bone": 7788,
      "_vinc": 7789,
      "_concrete": 7790,
      "_sket": 7791,
      "_vertical": 7792,
      "_stopped": 7793,
      "_neighbour": 7794,
      "_dollars": 7795,
      "_buddhist": 7796,
      "_phoenix": 7797,
      "_franchise": 7798,
      "sche": 7799,
      "erb": 7800,
      "_bm": 7801,
      "_gamb": 7802,
      "_nova": 7803,
      "_monaster": 7804,
      "minster": 7805,
      "_topic": 7806,
      "_prede": 7807,
      "_astronomy": 7808,
      "_arrival": 7809,
      "_proposal": 7810,
      "lah": 7811,
      "power": 7812,
      "_oak": 7813,
      "_gri": 7814,
      "rium": 7815,
      "illing": 7816,
      "_intense": 7817,
      "_coinc": 7818,
      "_varied": 7819,
      "_median": 7820,
      "_handle": 7821,
      "_window": 7822,
      "_funding": 7823,
      "_difficulties": 7824,
      "_luke": 7825,
      "_fossil": 7826,
      "_jupiter": 7827,
      "rating": 7828,
      "_aware": 7829,
      "anes": 7830,
      "_dee": 7831,
      "_vib": 7832,
      "emen": 7833,
      "_quot": 7834,
      "_valuable": 7835,
      "_philadelph": 7836,
      "aux": 7837,
      "_quebec": 7838,
      "_customs": 7839,
      "_bringing": 7840,
      "_adventure": 7841,
      "_adjacent": 7842,
      "_vacu": 7843,
      "_moses": 7844,
      "_hidden": 7845,
      "_anderson": 7846,
      "_vik": 7847,
      "icance": 7848,
      "_recre": 7849,
      "_seeing": 7850,
      "_subur": 7851,
      "_remote": 7852,
      "_missouri": 7853,
      "iscop": 7854,
      "_agreements": 7855,
      "_mathematicians": 7856,
      "_portrayed": 7857,
      "_dated": 7858,
      "_stamp": 7859,
      "_enlight": 7860,
      "_jobs": 7861,
      "_interm": 7862,
      "_mining": 7863,
      "_franco": 7864,
      "oster": 7865,
      "_denomin": 7866,
      "_thompson": 7867,
      "_optical": 7868,
      "_surrounded": 7869,
      "_complicated": 7870,
      "_croatia": 7871,
      "_session": 7872,
      "_bert": 7873,
      "_wis": 7874,
      "eda": 7875,
      "_eis": 7876,
      "_lig": 7877,
      "_tob": 7878,
      "odia": 7879,
      "aceae": 7880,
      "_powered": 7881,
      "_grain": 7882,
      "_bread": 7883,
      "_rocket": 7884,
      "_borough": 7885,
      "_privile": 7886,
      "_queens": 7887,
      "_transformation": 7888,
      "_consequence": 7889,
      "_summary": 7890,
      "oons": 7891,
      "_theater": 7892,
      "_bund": 7893,
      "agle": 7894,
      "_brad": 7895,
      "_journalist": 7896,
      "_concentrated": 7897,
      "_astrolog": 7898,
      "cp": 7899,
      "itre": 7900,
      "_semin": 7901,
      "_iowa": 7902,
      "_releases": 7903,
      "_merged": 7904,
      "_please": 7905,
      "_instrumental": 7906,
      "_prosper": 7907,
      "_proportion": 7908,
      "sky": 7909,
      "_deleg": 7910,
      "_authen": 7911,
      "ijing": 7912,
      "_ted": 7913,
      "_andre": 7914,
      "eller": 7915,
      "_accuracy": 7916,
      "_lock": 7917,
      "_obsc": 7918,
      "_liberalism": 7919,
      "_subsid": 7920,
      "_adventures": 7921,
      "_ai": 7922,
      "_bare": 7923,
      "_pist": 7924,
      "_pill": 7925,
      "_nik": 7926,
      "_interactive": 7927,
      "_belt": 7928,
      "_collections": 7929,
      "_fewer": 7930,
      "_housing": 7931,
      "_geneva": 7932,
      "_salvador": 7933,
      "_philadelphia": 7934,
      "_tends": 7935,
      "_bought": 7936,
      "orious": 7937,
      "_inhib": 7938,
      "_leib": 7939,
      "_hunt": 7940,
      "_subset": 7941,
      "_mongol": 7942,
      "_unoffic": 7943,
      "_cort": 7944,
      "_ongoing": 7945,
      "ibilities": 7946,
      "_recovery": 7947,
      "_accum": 7948,
      "_singing": 7949,
      "_baron": 7950,
      "_triple": 7951,
      "_readers": 7952,
      "_norman": 7953,
      "_augustus": 7954,
      "_conservation": 7955,
      "_louisiana": 7956,
      "_dealing": 7957,
      "_jacques": 7958,
      "_synthes": 7959,
      "_palestine": 7960,
      "erals": 7961,
      "_pm": 7962,
      "_nelson": 7963,
      "acts": 7964,
      "_symbolic": 7965,
      "_magnitude": 7966,
      "_cuban": 7967,
      "_rotation": 7968,
      "_skept": 7969,
      "_axiom": 7970,
      "_kosovo": 7971,
      "_dys": 7972,
      "_gur": 7973,
      "_rus": 7974,
      "_overth": 7975,
      "_governing": 7976,
      "_inches": 7977,
      "_moderate": 7978,
      "_factory": 7979,
      "_recognize": 7980,
      "_exceptions": 7981,
      "_ecu": 7982,
      "_autonom": 7983,
      "_sant": 7984,
      "_beck": 7985,
      "_thanks": 7986,
      "_ready": 7987,
      "_employment": 7988,
      "_editions": 7989,
      "_millennium": 7990,
      "_baltimore": 7991,
      "_mississippi": 7992,
      "pass": 7993,
      "_awa": 7994,
      "erts": 7995,
      "_coat": 7996,
      "_monitor": 7997,
      "cover": 7998,
      "_luxemb": 7999,
      "_significance": 8000,
      "_bub": 8001,
      "_ward": 8002,
      "_gust": 8003,
      "_beijing": 8004,
      "_abund": 8005,
      "_episcop": 8006,
      "_cyp": 8007,
      "_attempting": 8008,
      "_satur": 8009,
      "_guitarist": 8010,
      "_explorer": 8011,
      "_authentic": 8012,
      "_ig": 8013,
      "_tat": 8014,
      "_bour": 8015,
      "_bry": 8016,
      "_kan": 8017,
      "_auto": 8018,
      "_extend": 8019,
      "_singles": 8020,
      "_meanwhile": 8021,
      "_printing": 8022,
      "_suffering": 8023,
      "_reflected": 8024,
      "_bosnia": 8025,
      "_ieee": 8026,
      "_cognitive": 8027,
      "_maritime": 8028,
      "dish": 8029,
      "_pant": 8030,
      "_eating": 8031,
      "_oral": 8032,
      "_coins": 8033,
      "_europeans": 8034,
      "_advis": 8035,
      "_denied": 8036,
      "_taxes": 8037,
      "_lieuten": 8038,
      "wich": 8039,
      "_bath": 8040,
      "itis": 8041,
      "eded": 8042,
      "esh": 8043,
      "omot": 8044,
      "ether": 8045,
      "osaur": 8046,
      "_agencies": 8047,
      "_capita": 8048,
      "_pointed": 8049,
      "_advice": 8050,
      "_berg": 8051,
      "_narrative": 8052,
      "_optim": 8053,
      "_seventh": 8054,
      "_enormous": 8055,
      "western": 8056,
      "_ost": 8057,
      "station": 8058,
      "_alp": 8059,
      "_kiss": 8060,
      "_proclaimed": 8061,
      "_chi": 8062,
      "_shield": 8063,
      "_compare": 8064,
      "_raise": 8065,
      "_consol": 8066,
      "_looks": 8067,
      "_decimal": 8068,
      "_versus": 8069,
      "_relevant": 8070,
      "_reader": 8071,
      "_independently": 8072,
      "_threatened": 8073,
      "erial": 8074,
      "_coc": 8075,
      "aki": 8076,
      "_outl": 8077,
      "_mineral": 8078,
      "_britann": 8079,
      "_barry": 8080,
      "ova": 8081,
      "_convert": 8082,
      "_weekly": 8083,
      "_gregory": 8084,
      "iver": 8085,
      "_finger": 8086,
      "itt": 8087,
      "_stores": 8088,
      "_kant": 8089,
      "ifier": 8090,
      "abul": 8091,
      "_perception": 8092,
      "_playoff": 8093,
      "_entity": 8094,
      "_driving": 8095,
      "_participate": 8096,
      "_saxon": 8097,
      "vakia": 8098,
      "_colombia": 8099,
      "aware": 8100,
      "bow": 8101,
      "kind": 8102,
      "_fbi": 8103,
      "_voters": 8104,
      "_clay": 8105,
      "_pregn": 8106,
      "_coron": 8107,
      "_anthem": 8108,
      "_designer": 8109,
      "_physician": 8110,
      "_casual": 8111,
      "lon": 8112,
      "zh": 8113,
      "_conce": 8114,
      "_arsen": 8115,
      "_interrupt": 8116,
      "_corruption": 8117,
      "_holes": 8118,
      "_aimed": 8119,
      "ulsion": 8120,
      "_lithuanian": 8121,
      "_binding": 8122,
      "_aest": 8123,
      "_rfc": 8124,
      "_butt": 8125,
      "_scots": 8126,
      "_thereby": 8127,
      "_subd": 8128,
      "_mounted": 8129,
      "_fallen": 8130,
      "_acceptance": 8131,
      "_adoption": 8132,
      "_strange": 8133,
      "_shadow": 8134,
      "_voyage": 8135,
      "cd": 8136,
      "_fisher": 8137,
      "_mig": 8138,
      "_poets": 8139,
      "_blu": 8140,
      "_metals": 8141,
      "_coverage": 8142,
      "_violin": 8143,
      "_robinson": 8144,
      "_sensitive": 8145,
      "_compiler": 8146,
      "_gauge": 8147,
      "rill": 8148,
      "_jay": 8149,
      "_unions": 8150,
      "iva": 8151,
      "_infection": 8152,
      "_hoover": 8153,
      "_homes": 8154,
      "_costa": 8155,
      "_conventions": 8156,
      "_attracted": 8157,
      "_drinking": 8158,
      "krit": 8159,
      "_wider": 8160,
      "amine": 8161,
      "_indirect": 8162,
      "_phi": 8163,
      "_expend": 8164,
      "_austin": 8165,
      "_trivia": 8166,
      "_approaches": 8167,
      "_catch": 8168,
      "_tribute": 8169,
      "_toronto": 8170,
      "_aaron": 8171,
      "_leibn": 8172,
      "_bid": 8173,
      "aman": 8174,
      "_alive": 8175,
      "ocation": 8176,
      "agers": 8177,
      "_boot": 8178,
      "_guest": 8179,
      "_belgian": 8180,
      "_operators": 8181,
      "_priests": 8182,
      "_vert": 8183,
      "_cattle": 8184,
      "_quantities": 8185,
      "_exercise": 8186,
      "_bn": 8187,
      "_kurt": 8188,
      "_sphere": 8189,
      "izer": 8190,
      "_monument": 8191,
      "_complement": 8192,
      "_michel": 8193,
      "_employees": 8194,
      "_graduate": 8195,
      "_measurement": 8196,
      "_reviews": 8197,
      "_mutual": 8198,
      "_ble": 8199,
      "_pyr": 8200,
      "_mine": 8201,
      "_db": 8202,
      "using": 8203,
      "_chris": 8204,
      "_resur": 8205,
      "_quoted": 8206,
      "_willing": 8207,
      "_edin": 8208,
      "_communists": 8209,
      "_defining": 8210,
      "_footballer": 8211,
      "_maintains": 8212,
      "_bulg": 8213,
      "_maryland": 8214,
      "_hellen": 8215,
      "_ascii": 8216,
      "_comedian": 8217,
      "_reconstruction": 8218,
      "_helium": 8219,
      "_disagree": 8220,
      "lock": 8221,
      "_lamp": 8222,
      "_bever": 8223,
      "_yield": 8224,
      "_disorders": 8225,
      "_metab": 8226,
      "_troll": 8227,
      "_trem": 8228,
      "_bullet": 8229,
      "_championships": 8230,
      "mund": 8231,
      "_faces": 8232,
      "alia": 8233,
      "_reun": 8234,
      "_struck": 8235,
      "_comments": 8236,
      "_painted": 8237,
      "_programme": 8238,
      "_ellip": 8239,
      "_terrorist": 8240,
      "_errors": 8241,
      "_taste": 8242,
      "_leibniz": 8243,
      "iy": 8244,
      "_dian": 8245,
      "_chop": 8246,
      "_arama": 8247,
      "_teen": 8248,
      "_romance": 8249,
      "_decor": 8250,
      "_easter": 8251,
      "_telecommun": 8252,
      "_digit": 8253,
      "_diamonds": 8254,
      "_neighborhood": 8255,
      "_nickname": 8256,
      "_consensus": 8257,
      "_fet": 8258,
      "eness": 8259,
      "ishers": 8260,
      "room": 8261,
      "ologically": 8262,
      "_interst": 8263,
      "_entering": 8264,
      "neg": 8265,
      "_milan": 8266,
      "_decay": 8267,
      "_dogs": 8268,
      "_gravit": 8269,
      "_homosexuality": 8270,
      "_paintings": 8271,
      "_simultaneously": 8272,
      "_vacuum": 8273,
      "_aramaic": 8274,
      "_cree": 8275,
      "_mbox": 8276,
      "_lor": 8277,
      "_golf": 8278,
      "_commem": 8279,
      "pled": 8280,
      "_coined": 8281,
      "_metres": 8282,
      "_demon": 8283,
      "_barn": 8284,
      "_settlers": 8285,
      "_stanley": 8286,
      "_cocaine": 8287,
      "cos": 8288,
      "yll": 8289,
      "_fired": 8290,
      "_eternal": 8291,
      "_argu": 8292,
      "_receives": 8293,
      "_honour": 8294,
      "_addresses": 8295,
      "_wilhelm": 8296,
      "_diego": 8297,
      "_rolling": 8298,
      "_friendly": 8299,
      "otype": 8300,
      "_schedule": 8301,
      "_sultan": 8302,
      "_bent": 8303,
      "_pad": 8304,
      "_horm": 8305,
      "imm": 8306,
      "_rings": 8307,
      "agne": 8308,
      "_climb": 8309,
      "_phill": 8310,
      "_desired": 8311,
      "_regulations": 8312,
      "_libya": 8313,
      "_bulk": 8314,
      "_automatically": 8315,
      "_elevation": 8316,
      "_kentucky": 8317,
      "_besides": 8318,
      "_ceremony": 8319,
      "_clinical": 8320,
      "_marshall": 8321,
      "_unemployment": 8322,
      "ci": 8323,
      "_tables": 8324,
      "ifice": 8325,
      "emic": 8326,
      "_rab": 8327,
      "_studying": 8328,
      "_godzilla": 8329,
      "_slang": 8330,
      "_kingdoms": 8331,
      "_fragment": 8332,
      "_offering": 8333,
      "_manufactured": 8334,
      "_observer": 8335,
      "_shares": 8336,
      "_tendency": 8337,
      "untary": 8338,
      "cia": 8339,
      "pie": 8340,
      "_craft": 8341,
      "orous": 8342,
      "_ket": 8343,
      "_sharing": 8344,
      "_comprom": 8345,
      "_abbe": 8346,
      "_abortion": 8347,
      "_resigned": 8348,
      "_load": 8349,
      "olds": 8350,
      "_exposure": 8351,
      "_discrim": 8352,
      "_nationality": 8353,
      "_natives": 8354,
      "_hunter": 8355,
      "_albania": 8356,
      "_peters": 8357,
      "apped": 8358,
      "hana": 8359,
      "_injury": 8360,
      "feld": 8361,
      "eg": 8362,
      "mel": 8363,
      "ourg": 8364,
      "_shir": 8365,
      "_manga": 8366,
      "_servers": 8367,
      "_larry": 8368,
      "_governors": 8369,
      "_funeral": 8370,
      "_hitch": 8371,
      "_tourist": 8372,
      "_oscar": 8373,
      "_alcoh": 8374,
      "_clothing": 8375,
      "abulary": 8376,
      "_oz": 8377,
      "erg": 8378,
      "icut": 8379,
      "_gore": 8380,
      "_gross": 8381,
      "illery": 8382,
      "_shakes": 8383,
      "_clown": 8384,
      "enders": 8385,
      "outs": 8386,
      "_consent": 8387,
      "iki": 8388,
      "_drama": 8389,
      "engers": 8390,
      "_legislature": 8391,
      "_remainder": 8392,
      "_consonants": 8393,
      "_ceremon": 8394,
      "_alchem": 8395,
      "_ties": 8396,
      "_tip": 8397,
      "heas": 8398,
      "isations": 8399,
      "_zo": 8400,
      "_ry": 8401,
      "_plague": 8402,
      "_assy": 8403,
      "_requiring": 8404,
      "_trinity": 8405,
      "_viii": 8406,
      "_competitive": 8407,
      "_railroad": 8408,
      "_happy": 8409,
      "_adaptation": 8410,
      "_extensively": 8411,
      "_lieutenant": 8412,
      "oven": 8413,
      "atem": 8414,
      "_mh": 8415,
      "_gol": 8416,
      "illy": 8417,
      "_alumn": 8418,
      "_conform": 8419,
      "apore": 8420,
      "_plains": 8421,
      "_overw": 8422,
      "_generate": 8423,
      "_locomot": 8424,
      "_proposition": 8425,
      "_lasted": 8426,
      "_substant": 8427,
      "_cutting": 8428,
      "_wright": 8429,
      "_procedures": 8430,
      "_abolished": 8431,
      "_metaphys": 8432,
      "_aj": 8433,
      "_cats": 8434,
      "_nm": 8435,
      "_dub": 8436,
      "_stones": 8437,
      "ustion": 8438,
      "_trains": 8439,
      "_norse": 8440,
      "_liberals": 8441,
      "_cellular": 8442,
      "_nouns": 8443,
      "_semitic": 8444,
      "_glucose": 8445,
      "_arguably": 8446,
      "_tick": 8447,
      "_cem": 8448,
      "_cinc": 8449,
      "_bou": 8450,
      "_niet": 8451,
      "_genres": 8452,
      "_governed": 8453,
      "_instant": 8454,
      "_guil": 8455,
      "_communion": 8456,
      "_singapore": 8457,
      "_battery": 8458,
      "_eritre": 8459,
      "_judah": 8460,
      "_truly": 8461,
      "_trek": 8462,
      "mont": 8463,
      "after": 8464,
      "_reasoning": 8465,
      "_occasions": 8466,
      "_membrane": 8467,
      "iates": 8468,
      "itary": 8469,
      "_inherent": 8470,
      "_leaf": 8471,
      "_syd": 8472,
      "_impression": 8473,
      "_bills": 8474,
      "_timeline": 8475,
      "_inspiration": 8476,
      "_insulin": 8477,
      "anol": 8478,
      "_gig": 8479,
      "_gael": 8480,
      "_conan": 8481,
      "ulu": 8482,
      "_comet": 8483,
      "allas": 8484,
      "_bohem": 8485,
      "_irc": 8486,
      "_patron": 8487,
      "_trials": 8488,
      "_applies": 8489,
      "_marketing": 8490,
      "_counterpart": 8491,
      "_incorrect": 8492,
      "_edinburgh": 8493,
      "_ian": 8494,
      "no": 8495,
      "aro": 8496,
      "_gel": 8497,
      "_forg": 8498,
      "_kry": 8499,
      "_vital": 8500,
      "emed": 8501,
      "_nationalist": 8502,
      "_retain": 8503,
      "_grave": 8504,
      "_latest": 8505,
      "_argues": 8506,
      "_solve": 8507,
      "_brazilian": 8508,
      "_provincial": 8509,
      "_jonathan": 8510,
      "_crops": 8511,
      "_amendment": 8512,
      "_aluminium": 8513,
      "_fern": 8514,
      "ocent": 8515,
      "_worlds": 8516,
      "_estonia": 8517,
      "_revival": 8518,
      "_mechanisms": 8519,
      "_refugees": 8520,
      "ubstantial": 8521,
      "eration": 8522,
      "orus": 8523,
      "ird": 8524,
      "_brass": 8525,
      "_politically": 8526,
      "_dominican": 8527,
      "_assistant": 8528,
      "_revenue": 8529,
      "_ussr": 8530,
      "_galileo": 8531,
      "_florence": 8532,
      "phem": 8533,
      "_surn": 8534,
      "essions": 8535,
      "oga": 8536,
      "_tea": 8537,
      "avian": 8538,
      "_pool": 8539,
      "_considering": 8540,
      "_equil": 8541,
      "_exploration": 8542,
      "_socialism": 8543,
      "_sequences": 8544,
      "_happen": 8545,
      "_targets": 8546,
      "_mccar": 8547,
      "zsche": 8548,
      "_tied": 8549,
      "_aa": 8550,
      "_hd": 8551,
      "_stack": 8552,
      "_enhan": 8553,
      "oking": 8554,
      "_obst": 8555,
      "const": 8556,
      "_swing": 8557,
      "_romania": 8558,
      "_brah": 8559,
      "_morris": 8560,
      "_stronger": 8561,
      "_martial": 8562,
      "_camero": 8563,
      "_crack": 8564,
      "_bombing": 8565,
      "_complain": 8566,
      "_danger": 8567,
      "_unfortunately": 8568,
      "_expendit": 8569,
      "_cincinn": 8570,
      "_till": 8571,
      "rell": 8572,
      "_gam": 8573,
      "imir": 8574,
      "_rou": 8575,
      "aks": 8576,
      "_pret": 8577,
      "ugh": 8578,
      "_memor": 8579,
      "_franz": 8580,
      "_antib": 8581,
      "_gray": 8582,
      "_lights": 8583,
      "_circular": 8584,
      "_qur": 8585,
      "_tomb": 8586,
      "_advocates": 8587,
      "_repeatedly": 8588,
      "_mammals": 8589,
      "_perpet": 8590,
      "bro": 8591,
      "_wisc": 8592,
      "_afc": 8593,
      "_coe": 8594,
      "_flour": 8595,
      "_decide": 8596,
      "_embra": 8597,
      "_interpretations": 8598,
      "_feeling": 8599,
      "_opposing": 8600,
      "_etymology": 8601,
      "_nietzsche": 8602,
      "_dust": 8603,
      "_exha": 8604,
      "_amino": 8605,
      "_generations": 8606,
      "_flopp": 8607,
      "_publisher": 8608,
      "_matches": 8609,
      "_insubstantial": 8610,
      "_odd": 8611,
      "_seriously": 8612,
      "_anthropology": 8613,
      "_derivative": 8614,
      "_acknowled": 8615,
      "_sanskrit": 8616,
      "_autonomous": 8617,
      "_shakespe": 8618,
      "father": 8619,
      "sburg": 8620,
      "_sap": 8621,
      "_cock": 8622,
      "_mud": 8623,
      "elle": 8624,
      "_blocks": 8625,
      "_undert": 8626,
      "_guatem": 8627,
      "atherine": 8628,
      "_harp": 8629,
      "_alongside": 8630,
      "_adopt": 8631,
      "_encourage": 8632,
      "_dimensions": 8633,
      "_ecuador": 8634,
      "_denn": 8635,
      "_gm": 8636,
      "_stood": 8637,
      "_boom": 8638,
      "_farming": 8639,
      "_objective": 8640,
      "_chemist": 8641,
      "_appearing": 8642,
      "_broadway": 8643,
      "_missing": 8644,
      "_survival": 8645,
      "_requirement": 8646,
      "_shooting": 8647,
      "_jimmy": 8648,
      "_tradem": 8649,
      "_evangelical": 8650,
      "_hierarchy": 8651,
      "_luxembourg": 8652,
      "bage": 8653,
      "isition": 8654,
      "_wrest": 8655,
      "rac": 8656,
      "_spar": 8657,
      "_spending": 8658,
      "_apprec": 8659,
      "_terrain": 8660,
      "_breath": 8661,
      "_solomon": 8662,
      "_performances": 8663,
      "_annivers": 8664,
      "_looked": 8665,
      "_chapters": 8666,
      "_fifty": 8667,
      "_heroes": 8668,
      "_unlikely": 8669,
      "_chaos": 8670,
      "_recommend": 8671,
      "_merchant": 8672,
      "_claudius": 8673,
      "aine": 8674,
      "gl": 8675,
      "_rect": 8676,
      "_segment": 8677,
      "_hearing": 8678,
      "_prose": 8679,
      "_canter": 8680,
      "ibal": 8681,
      "_writes": 8682,
      "_definite": 8683,
      "_businesses": 8684,
      "_eugen": 8685,
      "_shakespeare": 8686,
      "uated": 8687,
      "_aka": 8688,
      "_bols": 8689,
      "_lag": 8690,
      "_lip": 8691,
      "_module": 8692,
      "othy": 8693,
      "_matt": 8694,
      "_economies": 8695,
      "_visitors": 8696,
      "_arabs": 8697,
      "_balls": 8698,
      "_striking": 8699,
      "ymes": 8700,
      "_graphic": 8701,
      "_diameter": 8702,
      "_vocabulary": 8703,
      "_ranging": 8704,
      "_troub": 8705,
      "_administered": 8706,
      "then": 8707,
      "_arose": 8708,
      "_cay": 8709,
      "ender": 8710,
      "_rever": 8711,
      "_reaches": 8712,
      "_alab": 8713,
      "_unw": 8714,
      "acht": 8715,
      "_marry": 8716,
      "_wearing": 8717,
      "_knock": 8718,
      "_carth": 8719,
      "_supplement": 8720,
      "_geographical": 8721,
      "_freely": 8722,
      "_immun": 8723,
      "_silent": 8724,
      "_conflicts": 8725,
      "_masters": 8726,
      "_purely": 8727,
      "_recommended": 8728,
      "_unofficial": 8729,
      "_cincinnati": 8730,
      "rous": 8731,
      "_sulf": 8732,
      "_aside": 8733,
      "_recur": 8734,
      "_studios": 8735,
      "anni": 8736,
      "_ski": 8737,
      "_activist": 8738,
      "_creatures": 8739,
      "_facilit": 8740,
      "_precip": 8741,
      "_shoot": 8742,
      "_connecticut": 8743,
      "_explosion": 8744,
      "_astronomical": 8745,
      "_thorough": 8746,
      "_kazakhstan": 8747,
      "case": 8748,
      "ean": 8749,
      "_pasc": 8750,
      "_mild": 8751,
      "_nag": 8752,
      "uda": 8753,
      "_teachers": 8754,
      "_warming": 8755,
      "_evident": 8756,
      "_damaged": 8757,
      "_ferdin": 8758,
      "_amazon": 8759,
      "_furn": 8760,
      "_sees": 8761,
      "ationally": 8762,
      "ules": 8763,
      "_recru": 8764,
      "_warner": 8765,
      "_transmit": 8766,
      "_creates": 8767,
      "anner": 8768,
      "_meetings": 8769,
      "_saved": 8770,
      "_lesb": 8771,
      "_tasks": 8772,
      "_suffix": 8773,
      "_tennis": 8774,
      "_supplies": 8775,
      "_nominated": 8776,
      "_ferdinand": 8777,
      "_stem": 8778,
      "berts": 8779,
      "_spoke": 8780,
      "izz": 8781,
      "_quotes": 8782,
      "_feast": 8783,
      "_brook": 8784,
      "_discrete": 8785,
      "_evening": 8786,
      "_periodic": 8787,
      "_identification": 8788,
      "_replacing": 8789,
      "_centered": 8790,
      "_ambig": 8791,
      "_withdrawal": 8792,
      "_slavic": 8793,
      "_submarine": 8794,
      "_subdiv": 8795,
      "_mccarthy": 8796,
      "_fi": 8797,
      "_pump": 8798,
      "_inaug": 8799,
      "imon": 8800,
      "_alice": 8801,
      "_kle": 8802,
      "estone": 8803,
      "_haiti": 8804,
      "ateral": 8805,
      "_engage": 8806,
      "_attorn": 8807,
      "onsin": 8808,
      "_basin": 8809,
      "_minimal": 8810,
      "_extrem": 8811,
      "_mainten": 8812,
      "_passion": 8813,
      "_proponents": 8814,
      "_illustrated": 8815,
      "ubbed": 8816,
      "_installed": 8817,
      "_teles": 8818,
      "_diesel": 8819,
      "aic": 8820,
      "boy": 8821,
      "_ome": 8822,
      "_sas": 8823,
      "_sick": 8824,
      "_bj": 8825,
      "_wats": 8826,
      "_loren": 8827,
      "_underlying": 8828,
      "_regulation": 8829,
      "_artillery": 8830,
      "_demands": 8831,
      "_elite": 8832,
      "_confuc": 8833,
      "_realm": 8834,
      "ervation": 8835,
      "_encry": 8836,
      "_philippines": 8837,
      "_circumcision": 8838,
      "mud": 8839,
      "rough": 8840,
      "_kon": 8841,
      "_noise": 8842,
      "_prest": 8843,
      "_carries": 8844,
      "_antio": 8845,
      "_aviation": 8846,
      "_derives": 8847,
      "_facult": 8848,
      "_exchang": 8849,
      "_hughes": 8850,
      "_adults": 8851,
      "_atheism": 8852,
      "_arbitrary": 8853,
      "_eclip": 8854,
      "_wisdom": 8855,
      "_equilib": 8856,
      "rons": 8857,
      "_tib": 8858,
      "_sri": 8859,
      "orate": 8860,
      "alf": 8861,
      "_heret": 8862,
      "_marvel": 8863,
      "_interf": 8864,
      "_euph": 8865,
      "_operates": 8866,
      "_runner": 8867,
      "_tournament": 8868,
      "_maintaining": 8869,
      "_wavel": 8870,
      "_neighb": 8871,
      "_stanford": 8872,
      "_archaeological": 8873,
      "_wisconsin": 8874,
      "auc": 8875,
      "_fate": 8876,
      "_fract": 8877,
      "igible": 8878,
      "chron": 8879,
      "irm": 8880,
      "_compens": 8881,
      "_brut": 8882,
      "_harbor": 8883,
      "_organism": 8884,
      "_henri": 8885,
      "_occurring": 8886,
      "_preval": 8887,
      "_fraction": 8888,
      "_sacrifice": 8889,
      "_diagram": 8890,
      "_electromagnetic": 8891,
      "bes": 8892,
      "_sib": 8893,
      "chi": 8894,
      "istent": 8895,
      "_jury": 8896,
      "_ras": 8897,
      "_scope": 8898,
      "_incomp": 8899,
      "_kevin": 8900,
      "_criteria": 8901,
      "_foods": 8902,
      "_hosts": 8903,
      "_consisted": 8904,
      "_phrases": 8905,
      "_vessels": 8906,
      "_oregon": 8907,
      "_constellation": 8908,
      "oes": 8909,
      "_naming": 8910,
      "_reed": 8911,
      "_alter": 8912,
      "_confer": 8913,
      "_item": 8914,
      "_reprint": 8915,
      "_invaded": 8916,
      "_revision": 8917,
      "_hob": 8918,
      "_crossing": 8919,
      "_integers": 8920,
      "_arabia": 8921,
      "restrial": 8922,
      "_permission": 8923,
      "_displayed": 8924,
      "_hindi": 8925,
      "_revolt": 8926,
      "heastern": 8927,
      "_watson": 8928,
      "_bore": 8929,
      "icing": 8930,
      "_lap": 8931,
      "_gon": 8932,
      "_bearing": 8933,
      "_cler": 8934,
      "_abroad": 8935,
      "_newer": 8936,
      "_minerals": 8937,
      "_extends": 8938,
      "_distant": 8939,
      "_orientation": 8940,
      "_girls": 8941,
      "_lutheran": 8942,
      "_pioneer": 8943,
      "_rifle": 8944,
      "_bulgarian": 8945,
      "_sydney": 8946,
      "_maintenance": 8947,
      "db": 8948,
      "uin": 8949,
      "van": 8950,
      "inter": 8951,
      "oning": 8952,
      "ulates": 8953,
      "_encl": 8954,
      "agg": 8955,
      "_scored": 8956,
      "_cargo": 8957,
      "_transmitted": 8958,
      "_entities": 8959,
      "_legs": 8960,
      "_patrick": 8961,
      "_immort": 8962,
      "_encomp": 8963,
      "_chemicals": 8964,
      "_villages": 8965,
      "_solely": 8966,
      "_tissue": 8967,
      "_bolshe": 8968,
      "_encompass": 8969,
      "_ine": 8970,
      "_dil": 8971,
      "olk": 8972,
      "_jung": 8973,
      "_rac": 8974,
      "_pharm": 8975,
      "_persu": 8976,
      "_elvis": 8977,
      "_batter": 8978,
      "_explains": 8979,
      "_dupl": 8980,
      "_facing": 8981,
      "_losses": 8982,
      "_closest": 8983,
      "_explosive": 8984,
      "omorphic": 8985,
      "_unsuccessful": 8986,
      "iveness": 8987,
      "_nord": 8988,
      "_lung": 8989,
      "_unified": 8990,
      "_spark": 8991,
      "_marie": 8992,
      "_defines": 8993,
      "_irreg": 8994,
      "_confidence": 8995,
      "_radar": 8996,
      "_restoration": 8997,
      "appa": 8998,
      "_frontier": 8999,
      "_lebanese": 9000,
      "_confederation": 9001,
      "_propaganda": 9002,
      "_overwhel": 9003,
      "_cran": 9004,
      "atical": 9005,
      "_kb": 9006,
      "_deals": 9007,
      "_deploy": 9008,
      "_doctors": 9009,
      "_swim": 9010,
      "_grade": 9011,
      "_vocals": 9012,
      "_syntax": 9013,
      "_proportional": 9014,
      "rection": 9015,
      "_kay": 9016,
      "_josh": 9017,
      "_waste": 9018,
      "_scores": 9019,
      "_deskt": 9020,
      "_presents": 9021,
      "_muscle": 9022,
      "_surgery": 9023,
[...]
